<pad> 1000
<unk> 1000
<s> 1000
</s> 1000
<spc> 1000
, 291146
. 219968
the 200690
and 143548
to 121146
of 111251
a 102599
that 90719
i 80829
in 75498
it 71367
you 67161
we 65395
is 61205
&apos;s 53463
this 47014
so 35387
&quot; 35183
they 31800
was 29595
for 28917
are 27325
have 26244
but 25933
what 25405
on 25318
- 24046
with 24001
can 22616
? 21459
@-@ 21379
&apos;t 21304
about 20415
there 19983
be 19581
as 19276
at 18566
all 18376
not 18095
my 17429
do 17152
one 16937
people 16210
&apos;re 16130
like 15677
if 15429
from 15014
our 14253
or 13784
an 13713
now 13674
these 13422
just 13401
he 13338
when 13116
) 13066
( 13053
: 12851
because 12467
me 11808
by 11696
out 11603
very 11593
how 11294
them 11099
up 11027
know 10816
going 10732
more 10685
had 10458
who 10236
think 10042
their 9918
your 9904
see 9778
were 9749
which 9638
would 9452
really 9294
here 9205
us 9068
get 8963
&apos;ve 8852
then 8812
time 8698
world 8507
&apos;m 8309
some 8285
has 7993
laughter 7972
don 7871
into 7722
actually 7542
way 7522
where 7440
will 7408
years 7225
things 7206
other 7073
could 7003
well 6759
want 6740
go 6723
no 6700
been 6640
make 6498
she 6139
right 6048
said 6045
two 6043
first 6040
something 6024
those 6013
than 5812
much 5573
also 5533
look 5488
new 5424
little 5335
most 5226
over 5219
thing 5204
even 5198
got 5159
back 5156
life 5038
only 5038
say 5005
his 4984
work 4932
many 4891
take 4726
need 4691
did 4463
why 4387
lot 4370
every 4348
kind 4332
around 4281
good 4183
different 4111
let 4054
through 3992
her 3980
down 3951
; 3909
being 3886
&apos;ll 3882
same 3881
come 3808
day 3702
applause 3667
three 3628
use 3616
year 3588
doing 3523
put 3433
called 3330
any 3316
made 3193
percent 3191
&apos;d 3176
after 3162
today 3139
tell 3110
human 3077
find 3011
great 2993
didn 2941
change 2892
own 2882
thank 2872
fact 2868
its 2833
talk 2819
idea 2797
another 2793
started 2788
before 2760
last 2758
big 2737
should 2714
able 2710
never 2708
thought 2689
give 2637
might 2634
went 2621
better 2614
important 2550
still 2535
each 2503
off 2501
part 2470
together 2470
next 2457
problem 2445
course 2441
does 2435
long 2424
start 2418
again 2416
story 2394
brain 2392
came 2376
system 2364
him 2349
ago 2331
few 2320
show 2311
women 2295
too 2261
place 2252
used 2243
bit 2240
old 2215
between 2207
water 2205
maybe 2198
found 2190
love 2183
technology 2174
end 2172
looking 2142
mean 2130
&apos; 2087
question 2071
point 2060
data 2047
example 2034
doesn 2022
school 2015
wanted 2014
live 2013
done 2002
feel 2000
real 1994
understand 1981
children 1973
four 1957
always 1939
call 1939
ever 1928
help 1928
working 1922
may 1911
whole 1904
believe 1890
person 1888
trying 1884
away 1864
sort 1861
million 1850
five 1849
try 1839
country 1828
everything 1820
using 1808
10 1800
man 1791
second 1784
kids 1760
number 1759
means 1729
thinking 1724
information 1719
space 1718
times 1715
create 1709
took 1697
less 1693
money 1681
high 1673
! 1661
small 1655
power 1641
design 1637
♫ 1635
home 1634
become 1632
left 1624
getting 1609
best 1607
making 1605
future 1595
social 1591
enough 1587
am 1573
probably 1557
sense 1551
quite 1544
without 1541
comes 1539
ask 1530
city 1528
light 1513
energy 1513
food 1511
talking 1494
body 1484
told 1474
half 1466
lives 1458
pretty 1453
such 1443
happened 1434
building 1429
hard 1426
science 1419
men 1415
across 1415
anything 1409
while 1409
interesting 1400
imagine 1400
coming 1396
earth 1395
play 1392
moment 1389
health 1389
once 1384
family 1381
ways 1368
stuff 1367
having 1367
music 1362
asked 1354
living 1353
experience 1339
build 1328
makes 1325
countries 1325
later 1322
room 1316
side 1314
dollars 1313
saw 1311
else 1310
yet 1306
seen 1300
days 1299
happen 1297
simple 1295
almost 1292
says 1292
care 1286
hand 1283
video 1277
remember 1276
bad 1272
single 1270
20 1267
inside 1265
young 1262
learn 1259
goes 1257
move 1255
africa 1252
case 1247
mind 1241
far 1237
open 1232
happens 1230
whether 1230
someone 1230
nothing 1223
picture 1221
often 1220
project 1217
reason 1214
age 1210
both 1205
problems 1202
six 1201
process 1197
saying 1186
basically 1182
already 1180
computer 1178
myself 1176
business 1175
states 1172
within 1171
car 1170
community 1169
book 1165
planet 1163
instead 1162
public 1161
cancer 1157
cells 1156
global 1155
looked 1154
sure 1150
set 1148
war 1144
sometimes 1140
possible 1140
history 1139
face 1127
matter 1125
re@@ 1123
keep 1120
wrong 1113
words 1112
child 1109
ideas 1109
top 1109
answer 1108
hope 1103
everybody 1102
looks 1097
until 1097
guy 1093
bring 1091
billion 1089
self 1080
since 1077
heard 1070
under 1067
months 1066
read 1063
wasn 1062
ted 1059
stories 1059
job 1058
amazing 1055
species 1055
true 1054
woman 1053
research 1050
isn 1049
built 1048
line 1047
form 1042
united 1041
nature 1040
group 1040
learned 1037
beautiful 1033
government 1033
middle 1025
un@@ 1015
word 1014
couple 1013
order 1007
knew 1006
places 1002
study 1002
yes 1001
friends 999
turn 996
run 993
though 992
control 989
decided 988
language 983
piece 982
everyone 981
head 977
oh 973
somebody 971
ourselves 971
stop 969
state 967
company 966
... 966
exactly 966
taking 965
large 960
30 960
internet 957
completely 954
became 953
art 952
ok 948
night 947
against 947
turns 945
animals 945
society 945
share 941
gets 935
hours 934
level 933
heart 932
house 932
rather 931
education 926
questions 924
america 923
mother 922
must 922
works 920
hear 920
others 909
model 908
kinds 907
name 905
huge 900
themselves 900
100 900
black 898
couldn 896
god 895
itself 893
okay 892
students 891
happening 889
minutes 889
universe 889
learning 889
sound 886
american 883
created 883
third 882
disease 882
&#91; 879
past 876
&#93; 875
front 874
perhaps 872
50 871
thousands 871
based 867
ones 867
per 863
early 863
news 862
india 862
worked 857
during 856
along 852
least 850
environment 848
century 838
air 836
finally 832
entire 831
figure 827
gave 824
outside 823
cell 823
free 819
game 817
lots 812
happy 811
particular 811
full 806
natural 805
machine 802
won 802
given 802
changed 801
china 799
systems 795
seven 794
guys 790
taken 789
felt 784
scale 784
needs 780
culture 778
yourself 778
takes 777
parents 775
close 771
ocean 768
behind 768
difficult 763
realized 762
seeing 762
easy 762
image 760
cities 758
companies 756
reality 752
leave 751
walk 750
15 749
land 748
difference 748
turned 746
needed 745
area 743
population 741
red 740
moving 740
cost 738
team 738
began 738
ability 734
fish 734
simply 733
powerful 731
size 731
audience 729
yeah 728
economic 727
eyes 725
york 722
hands 719
view 719
beginning 717
certain 717
whatever 717
cannot 716
longer 713
common 712
known 712
white 712
media 711
death 711
local 710
eight 705
political 703
phone 702
market 701
parts 700
humans 699
spend 695
terms 695
week 692
oil 688
interested 682
amount 682
s 679
wonderful 679
grow 678
deal 676
poor 673
friend 673
tried 672
field 670
lost 668
step 666
value 665
gone 664
patients 663
paper 662
born 662
low 662
test 660
spent 660
climate 659
either 656
quickly 656
father 655
sitting 649
national 649
green 648
buy 648
center 645
shows 645
growing 645
pay 645
weeks 644
wouldn 643
dna 642
growth 640
rest 640
ca 639
challenge 635
opportunity 635
scientists 633
voice 632
write 632
south 631
met 629
behavior 629
blue 624
s. 624
speak 624
complex 622
feeling 619
anyone 615
girl 615
fear 614
deep 614
literally 609
surface 608
giving 605
changes 605
ground 604
girls 604
street 604
average 603
morning 602
blood 601
realize 600
economy 600
die 600
attention 599
structure 599
incredible 598
bottom 597
program 597
books 595
feet 595
hundreds 595
wrote 594
animal 594
key 594
areas 593
40 592
brought 592
access 591
sea 590
eat 590
telling 589
numbers 589
short 589
physical 587
watch 587
seems 587
cars 585
starting 584
forward 584
alone 583
knowledge 582
personal 579
map 577
u.s. 576
understanding 573
led 572
law 572
images 571
t 571
developed 570
act 570
force 570
stage 569
running 566
cut 564
millions 564
recently 564
discovered 563
support 561
kid 559
tools 557
creating 556
risk 555
de@@ 554
absolutely 553
medical 553
relationship 552
fast 550
individual 549
north 548
k@@ 546
result 546
soon 544
especially 544
choice 543
box 543
changing 543
theory 542
clear 541
type 540
normal 540
movement 540
nice 538
seem 538
stand 537
miles 536
ice 536
solve 536
sun 535
asking 534
in@@ 534
hold 533
europe 533
material 532
lab 531
patient 530
issue 529
online 529
designed 527
likely 526
save 526
nobody 526
class 526
gives 525
truth 524
focus 524
it. 524
development 523
showed 521
technologies 519
wall 518
allow 518
term 517
generation 517
incredibly 515
rate 514
dark 514
12 514
industry 512
fly 512
tiny 510
chance 509
network 509
shape 508
playing 508
haven 508
fun 505
begin 505
english 505
carbon 504
solution 504
beyond 504
issues 503
university 500
son 500
o 500
resources 499
meet 498
solar 498
color 496
sounds 496
baby 495
lived 495
hour 494
major 494
nine 493
developing 492
innovation 491
evidence 490
teach 490
several 489
special 487
groups 487
aren 487
available 486
impact 486
becomes 486
worth 485
reasons 485
eye 484
dead 484
stay 483
anybody 483
product 482
cool 482
chinese 481
send 480
died 479
towards 478
computers 477
perfect 476
experiment 476
guess 475
knows 475
writing 475
basic 474
non 473
ed 473
putting 473
office 473
walking 472
situation 471
obviously 471
table 471
month 470
pictures 470
revolution 470
present 470
talked 469
modern 469
drug 468
rules 467
effect 467
produce 465
poverty 465
message 465
involved 465
hundred 463
bigger 462
quality 461
please 461
similar 460
web 459
drive 459
explain 459
security 458
source 457
film 456
violence 456
international 455
digital 455
al 453
scientific 453
schools 452
indeed 451
college 451
eventually 451
west 449
dream 449
suddenly 449
certainly 448
action 448
particularly 448
lead 447
drugs 446
sleep 446
hit 446
reach 445
nuclear 444
moved 444
general 444
break 444
african 444
e@@ 442
cause 441
ready 440
trust 440
among 439
approach 439
robot 438
potential 438
biggest 438
notice 438
listen 437
creative 437
favorite 437
follow 436
largest 435
pick 435
success 433
google 431
democracy 430
device 430
showing 429
fall 429
add 429
er 427
mass 427
software 426
higher 425
object 425
organization 425
memory 424
minute 423
evolution 423
totally 423
journey 422
student 422
jobs 422
camera 421
sit 421
wants 420
boy 420
named 420
communities 419
east 419
vision 418
speed 418
25 418
plan 417
role 416
results 416
onto 416
safe 415
grew 415
positive 415
hospital 415
starts 415
choose 413
late 411
leaders 411
finding 411
watching 411
doctor 411
strong 410
e 409
sex 409
connected 409
road 409
door 408
meaning 408
continue 408
materials 407
ate 407
projects 407
measure 407
develop 406
families 406
examples 406
essentially 406
individuals 405
trees 405
exciting 405
mine 405
everywhere 404
crazy 404
60 404
compassion 404
treatment 403
extremely 403
perspective 402
usually 402
mars 402
including 401
interest 401
games 401
further 401
ended 400
anyway 400
pattern 400
lines 400
bodies 399
♪ 399
meant 399
medicine 399
supposed 399
fire 396
mom 396
zero 395
somewhere 394
conversation 394
period 393
shown 393
rights 393
wait 393
loved 393
wind 392
models 392
11 392
rich 391
fight 391
teachers 391
worse 391
conditions 391
somehow 390
decision 390
taught 390
allowed 390
plants 390
standing 388
re 388
older 388
forest 388
tells 387
police 387
sent 387
s@@ 386
killed 386
doctors 386
list 385
skin 385
response 385
lose 384
truly 384
goal 384
movie 384
brains 383
expect 383
y@@ 382
recognize 381
faster 380
spread 380
humanity 380
however 379
es 379
happiness 379
teacher 378
freedom 378
code 377
screen 377
objects 375
x 375
cold 374
protect 374
above 374
buildings 373
training 373
extraordinary 372
smart 372
points 372
d@@ 372
consider 372
plant 371
except 370
tree 370
page 370
pieces 370
successful 369
reading 369
bunch 369
increase 369
progress 369
studies 368
thousand 368
record 368
forms 368
village 367
a@@ 366
excited 366
wish 366
waste 366
kill 366
allows 366
80 365
service 364
biology 364
o@@ 364
crisis 364
wife 364
activity 364
peace 363
clearly 363
context 363
mental 363
ar@@ 362
site 362
kept 361
architecture 361
200 361
americans 361
written 360
square 360
board 360
upon 360
king 359
visual 359
products 359
sorts 359
intelligence 358
larger 357
exist 357
fundamental 357
gas 357
hot 357
beings 356
cases 356
main 356
impossible 355
specific 354
18 354
alive 354
di@@ 353
healthy 353
provide 352
electricity 352
tool 352
complicated 351
traditional 351
income 351
bacteria 351
clean 351
patterns 350
touch 350
pain 350
throughout 349
series 349
hiv 349
although 348
central 347
machines 346
president 344
slow 344
earlier 343
solutions 343
moral 343
critical 343
travel 342
foot 342
tend 342
performance 342
military 342
b 342
ing 342
therefore 341
g@@ 341
you. 341
weren 341
serious 341
policy 340
version 340
town 340
i@@ 340
listening 340
becoming 340
anymore 339
train 338
decisions 338
bed 338
anywhere 338
greatest 338
driving 338
genetic 336
wonder 336
search 336
waiting 336
range 335
current 335
d 334
unfortunately 334
fine 334
engineering 333
decades 332
lower 332
minds 332
p@@ 331
shot 331
stars 330
uses 330
park 330
genes 330
effective 329
babies 329
robots 329
private 329
career 329
concept 328
de 328
win 327
plastic 327
smaller 326
floor 326
region 326
dangerous 326
practice 326
institutions 325
t@@ 324
western 324
price 324
rise 324
himself 323
en@@ 323
actual 322
store 322
neurons 322
physics 322
challenges 321
path 321
al@@ 321
speaking 320
fully 320
y 320
immediately 320
skills 320
position 320
greater 319
services 318
race 318
expensive 317
values 317
famous 317
near 317
chris 317
beauty 317
strange 316
final 316
/ 315
dad 315
conflict 314
pull 313
ers 313
thanks 313
hey 313
urban 312
levels 310
production 310
politics 310
tv 310
bank 310
religion 310
treat 310
forget 310
sky 310
shared 309
walked 309
massive 309
helped 309
sell 308
subject 308
female 307
dog 307
trade 307
costs 306
sat 306
relationships 306
governments 306
ca@@ 305
broken 305
none 304
raise 304
types 304
nation 304
whose 304
familiar 304
content 304
connect 304
unique 303
mostly 303
ahead 303
seconds 303
over@@ 303
decide 302
diseases 302
cultural 302
financial 301
meeting 301
flying 301
teaching 301
arm 301
z@@ 300
c@@ 300
secret 300
be@@ 300
ts 300
boys 300
river 300
star 299
legs 299
citizens 298
birds 298
terrible 297
mobile 297
choices 297
party 296
fantastic 296
recent 296
decade 296
website 296
ran 296
ra@@ 295
m@@ 295
improve 295
organizations 295
m 295
connection 293
afraid 293
colleagues 292
environmental 292
flow 292
experiences 292
useful 292
possibly 291
knowing 291
various 291
glass 290
summer 290
complete 290
sharing 290
pressure 289
survive 289
despite 289
ing. 289
creativity 289
daughter 289
obvious 289
rule 289
virus 288
function 288
answers 288
paid 288
invented 288
post 288
se@@ 288
london 288
fit 287
effects 287
weight 287
understood 287
biological 287
math 286
male 286
direction 285
press 285
90 285
industrial 285
closer 285
u@@ 284
worst 284
seemed 284
museum 284
societies 283
aid 283
stopped 283
willing 283
atmosphere 283
li@@ 283
feed 282
b@@ 282
ated 282
enormous 282
magic 282
dollar 282
dance 282
la@@ 282
following 281
john 281
sign 281
draw 281
an@@ 281
song 281
feels 280
capacity 280
directly 280
14 280
dr. 279
artist 279
address 278
instance 278
aware 278
nearly 278
capital 278
straight 278
below 278
remarkable 278
moon 277
television 277
70 277
forth 276
apart 276
hole 276
character 276
event 276
causes 275
extra 275
noticed 275
laws 275
standard 275
ro@@ 275
explore 274
e. 274
published 274
ancient 273
slightly 273
track 273
n@@ 272
programs 272
d. 272
c 272
emotional 272
text 272
gene 271
highly 271
genome 271
emotions 271
depression 271
sustainable 270
held 270
scientist 270
2 269
identity 268
push 268
chemical 267
dying 267
differences 267
popular 266
supply 266
helping 266
fuel 265
co@@ 265
discover 265
stick 265
communication 264
giant 264
religious 263
infrastructure 263
focused 263
temperature 263
purpose 263
related 263
forces 263
california 263
gotten 263
mountain 263
fix 262
slide 262
sorry 262
task 262
worry 262
drop 261
ting 261
g 261
birth 261
significant 261
heat 261
communicate 261
creates 261
24 261
played 261
differently 261
funny 260
speech 260
farmers 260
bought 259
surgery 259
evolved 259
responsibility 259
le@@ 259
bill 258
easier 258
inspired 258
dreams 258
16 258
produced 258
eating 258
active 258
oxygen 257
con@@ 256
t. 256
ant 256
experiments 256
pass 255
entirely 255
photograph 255
ultimately 255
join 255
members 255
networks 255
check 255
diversity 255
lights 255
planets 255
quick 255
achieve 254
studying 254
ball 254
markets 254
twice 254
legal 254
mission 254
k 254
total 254
streets 253
cover 253
ly 253
afghanistan 253
easily 253
justice 252
10,000 252
reduce 252
300 252
engage 252
si@@ 252
missing 251
conference 251
carry 251
workers 251
gender 251
island 250
ab@@ 249
professor 249
email 249
core 249
ri@@ 249
original 249
loss 248
window 248
distance 248
radio 248
nations 248
offer 248
imagination 247
ma@@ 247
hearing 247
facebook 247
passion 246
ship 246
that. 245
designers 245
molecules 245
photo 245
consciousness 245
report 244
civil 244
500 244
landscape 244
brother 244
opposite 243
importantly 243
basis 243
moments 243
y. 243
corner 243
hair 242
attack 242
degrees 242
painting 242
shift 242
husband 241
$ 241
devices 241
bringing 240
figured 240
san 240
spending 240
trouble 240
david 239
at@@ 239
bo@@ 238
matters 238
suffering 238
opportunities 238
passed 238
1 237
apply 237
noise 237
edge 237
traffic 236
leadership 236
this. 236
ates 236
raised 236
stress 236
boat 236
net 235
foundation 235
prison 235
indian 235
blind 234
failure 234
rock 234
ti@@ 234
turning 234
meters 233
complexity 233
lucky 233
bear 233
l 232
aids 232
bird 232
deeply 232
cross 232
majority 232
definition 231
ants 231
describe 231
forever 231
interact 231
otherwise 231
sick 231
virtual 230
collective 230
vast 230
trained 230
l@@ 229
discovery 229
degree 229
billions 229
sexual 228
spaces 228
possibility 228
lo@@ 228
sister 228
structures 228
bridge 227
afford 227
efficient 227
ha@@ 227
visit 226
adults 226
1,000 226
oceans 226
dis@@ 226
tremendous 226
respect 226
stuck 225
letter 225
european 225
believed 225
strategy 225
return 225
double 225
engineers 225
wild 225
agree 224
helps 224
brings 224
holding 224
shouldn 224
particles 223
2@@ 223
negative 223
artists 223
fairly 222
condition 222
trial 222
leads 222
lack 222
bi@@ 221
leading 221
responsible 221
soil 221
r 221
japan 221
block 221
coffee 220
magazine 220
creatures 220
ation 220
foreign 220
effort 220
weird 220
coral 220
elements 220
calls 220
opened 219
ating 219
13 219
u 218
necessarily 218
typical 218
french 218
compared 217
er@@ 217
studied 217
events 217
bone 217
balance 217
lies 217
saving 216
flight 216
ous 216
pre@@ 216
talks 216
stem 216
asia 215
notion 215
fighting 215
ch@@ 215
throw 215
labor 215
sold 214
received 214
benefits 214
unless 214
on. 213
charge 213
predict 213
tissue 212
competition 212
represent 212
walls 212
argument 212
phones 212
caught 211
mr. 211
phenomenon 211
hopefully 211
yellow 211
es. 211
bees 211
weapons 211
desire 211
brilliant 211
dimensional 211
account 211
grown 211
18@@ 210
engine 210
als 210
benefit 210
harder 210
faces 210
catch 210
necessary 209
capable 209
colors 209
according 209
ac@@ 209
card 209
childhood 209
arms 209
grade 209
super 209
extreme 209
sudden 208
failed 208
base 208
h@@ 208
ends 208
iraq 208
transform 208
circle 208
leaving 207
names 207
f@@ 207
constantly 207
sad 207
currently 207
sh@@ 207
pe@@ 206
r@@ 206
researchers 206
ten 206
british 206
17 206
campaign 206
wearing 206
brazil 206
neighborhood 206
mo@@ 206
begins 205
respond 205
described 205
due 205
waves 205
wealth 205
finished 205
wear 205
leader 205
era 204
equal 204
prize 204
or@@ 204
gold 204
slowly 204
sector 204
lesson 204
background 204
multiple 204
station 203
p 203
surprise 203
argue 203
deliver 203
everyday 203
wide 203
electric 202
hate 202
fashion 202
brand 202
followed 201
fourth 201
quote 201
right. 201
enjoy 201
sing 201
invisible 201
struggle 201
concerned 201
treated 201
driven 201
steps 200
mathematics 200
invited 200
honest 200
daily 200
apple 200
paying 199
hell 199
coast 199
note 199
identify 198
fell 198
worried 198
folks 198
limited 198
engineer 198
motion 198
caused 197
investment 197
fair 197
graph 197
experienced 197
mouse 197
separate 197
whom 197
per@@ 196
demand 196
collect 196
hidden 196
proud 196
spot 196
date 196
marriage 196
commercial 196
washington 196
2,000 196
tumor 196
surprised 196
target 196
sequence 196
highest 195
malaria 195
dinner 195
damage 195
as@@ 195
affect 195
mothers 195
operating 195
perfectly 195
organisms 195
professional 195
voices 195
moves 194
faith 194
compare 194
comfortable 194
married 194
whenever 194
car@@ 194
closed 194
watched 193
sand 193
wave 193
filled 193
breast 193
partner 193
leaves 193
n 193
cheap 193
joy 193
pounds 193
fields 193
profound 193
insects 193
managed 193
normally 193
homes 193
he@@ 193
photos 192
twitter 192
inter@@ 192
desert 192
safety 191
tens 191
heads 191
avoid 191
clinical 191
generations 191
survival 190
germany 190
businesses 190
ordinary 190
w@@ 190
stood 190
mentioned 190
calling 190
designing 189
me. 189
protein 189
alternative 189
9 189
languages 189
existence 189
invest 189
australia 189
picked 189
management 189
expected 189
surprising 189
seriously 188
influence 188
tomorrow 188
increasingly 188
v@@ 188
prevent 188
lady 188
consequences 188
sa@@ 188
paint 188
losing 188
tough 188
me@@ 188
classroom 188
tons 187
toward 187
signal 187
it@@ 187
ba@@ 187
forced 187
lie 187
ne@@ 187
scene 186
department 186
co 186
3@@ 186
equivalent 186
gap 186
rates 186
cycle 186
mouth 185
jump 185
deeper 185
random 185
considered 185
facing 185
gay 185
exercise 185
stone 185
op@@ 185
factory 185
intelligent 184
wisdom 184
quantum 184
planning 184
count 183
civilization 183
feelings 183
aging 183
principle 183
am@@ 183
manage 182
cure 182
galaxy 182
detail 182
spirit 182
mi@@ 182
ah 182
mar@@ 182
bits 182
canada 182
plane 182
so@@ 182
3 182
roll 181
20th 181
wondering 181
bus 181
advantage 181
crime 181
associated 181
fascinating 181
experts 181
yesterday 181
fill 181
threat 181
continent 180
users 180
requires 180
tail 180
os@@ 180
drawing 180
pages 180
principles 180
trip 180
debate 180
hasn 179
universal 179
movies 179
testing 179
shoes 179
on@@ 179
ta@@ 179
creation 179
hadn 179
facts 179
opening 179
goals 179
plus 179
dealing 178
direct 178
400 178
spoke 178
leg 178
coal 178
adult 178
trillion 178
analysis 178
farm 177
lunch 177
ton 177
inner 177
technical 177
contact 177
match 177
ages 177
rain 177
characters 177
signs 176
organic 176
specifically 176
rural 176
article 176
institute 176
la 176
church 176
meat 176
advanced 176
wood 176
valley 176
chain 175
heavy 175
grandmother 175
organized 175
accept 175
messages 175
intellectual 175
regular 175
kilometers 175
interaction 175
consumption 175
signals 175
independent 175
statistics 175
covered 175
houses 174
cultures 174
rare 174
fail 174
vote 174
ter 174
belief 174
drink 174
launched 174
3d 174
cognitive 174
exists 174
rid 174
galaxies 173
variety 173
co2 173
theater 173
bar@@ 173
designer 173
remote 173
gift 173
arrived 173
100,000 173
saved 173
vehicle 173
mile 173
z 173
tech 172
emotion 172
wake 172
cloud 172
platform 172
agriculture 172
kenya 172
camp 172
versus 172
st@@ 172
sp@@ 172
army 172
driver 172
exact 171
letters 171
equipment 171
empty 171
expression 171
da 171
nervous 171
layer 171
cat 171
suggest 171
satellite 171
harvard 171
beat 171
thinks 170
le 170
curious 170
holes 170
appear 170
underneath 170
minister 170
feedback 170
forests 170
britain 170
artificial 169
increasing 169
link 169
resource 169
muslim 169
capture 169
economics 169
interface 169
importance 169
bar 169
george 169
chair 168
th@@ 168
grand 168
keeping 168
finish 168
ge@@ 168
corruption 168
yeah. 168
democratic 168
graduate 168
electrical 168
soldiers 168
sentence 168
worldwide 167
vulnerable 167
21st 167
weather 167
out@@ 167
distribution 167
okay. 167
prime 167
gdp 167
japanese 167
switch 167
ray 167
empathy 166
amp 166
pre 166
maps 166
warming 166
strength 166
dynamic 166
essential 166
killing 166
sites 166
property 166
roughly 166
mit 166
awful 166
collection 166
cutting 166
roof 165
puts 165
molecule 165
em 165
member 165
fossil 165
dry 165
relatively 165
shapes 165
accident 165
etc 165
define 165
poetry 164
status 164
broke 164
liked 164
addition 164
el@@ 164
spring 164
processes 164
player 164
metaphor 164
mark 164
promise 163
anti 163
sides 163
en 163
politicians 163
possibilities 163
ine 163
pop 163
scared 163
england 163
fellow 163
reaction 163
honor 162
situations 162
vi@@ 162
garden 162
zone 162
user 162
enter 162
added 162
dots 162
prove 162
valuable 162
los 162
iran 162
sugar 162
whereas 162
brown 162
southern 162
sources 162
mexico 162
super@@ 162
ad@@ 161
details 161
seat 161
express 161
construction 161
arts 161
connections 161
smell 161
bread 161
suppose 161
fat 161
exchange 160
sending 160
hurt 160
lifetime 160
chemistry 160
gravity 160
copy 160
activities 160
evil 160
molecular 160
thoughts 160
ring 159
breath 159
affected 159
court 159
transportation 159
carefully 159
trials 159
northern 159
generally 159
refugees 159
rapidly 159
flu 159
players 159
illness 158
introduced 158
ks 158
soul 158
pulled 157
healthcare 157
finger 157
location 157
effectively 157
serve 157
bright 157
nigeria 157
emissions 157
fi@@ 157
du@@ 157
master 156
conscious 156
previous 156
producing 156
round 156
te@@ 156
environments 156
steel 156
generate 156
tu@@ 156
cameras 156
microbes 155
confidence 155
tri@@ 155
silence 155
row 155
sum 155
released 155
francisco 155
videos 155
conversations 155
typically 155
wars 155
actions 155
terrorism 155
airplane 155
sets 155
neighbors 155
convinced 155
kitchen 154
awareness 154
setting 154
invention 154
employees 154
wow 154
battery 154
click 154
radiation 154
credit 154
muscle 154
risks 154
worlds 154
method 154
button 154
behaviors 154
poem 154
mountains 154
budget 153
mystery 153
election 153
cards 153
sub 153
dimensions 153
victims 153
der 153
selling 153
shame 153
perception 153
sub@@ 153
increased 153
definitely 153
parent 153
fundamentally 152
no. 152
organs 152
hide 152
represents 152
them. 152
om@@ 152
hall 152
novel 152
ma 152
75 152
unit 152
richard 152
ride 152
liquid 152
transition 151
diet 151
4 151
einstein 151
pleasure 151
regions 151
physically 151
release 151
mistake 151
st. 151
fewer 150
techniques 150
conservation 150
a. 150
narrative 150
profit 150
atoms 150
man@@ 150
warm 150
shop 150
unlike 150
falling 150
immune 150
stupid 150
spectrum 149
engaged 149
autism 149
flat 149
include 149
chose 149
patent 149
processing 149
require 149
print 149
par@@ 149
h 149
absolute 148
battle 148
library 148
remain 148
fiction 148
israel 148
naturally 148
here. 148
detect 148
35 148
carrying 148
marine 148
privacy 148
emerging 148
dinosaurs 147
therapy 147
nor 147
primary 147
winter 147
flag 147
tradition 147
tests 147
epidemic 147
nasa 147
45 147
ness 147
properties 147
sharks 147
components 147
motor 147
formed 146
prepared 146
survey 146
runs 146
ings 146
u.k. 146
doubt 146
blocks 146
bu@@ 146
viruses 146
150 146
factors 146
remind 146
meaningful 146
miss 146
option 146
swimming 145
introduce 145
ho@@ 145
chemicals 145
combination 145
3,000 145
lying 145
wing 145
monkey 145
&amp; 145
beach 145
sees 145
advice 145
encourage 144
reached 144
defined 144
flies 144
j@@ 144
mistakes 144
personally 144
teeth 144
exploration 144
centers 144
opinion 144
illegal 144
solving 144
singing 144
movements 144
bubble 143
interests 143
protection 143
discussion 143
pro@@ 143
to@@ 143
fold 143
laboratory 143
fund 143
recorded 143
grid 143
algorithms 143
factor 143
hospitals 143
ecosystem 143
sports 143
lay 143
ag@@ 143
shark 143
acting 143
entrepreneurs 143
notes 143
former 142
evolutionary 142
restaurant 142
keeps 142
depends 142
convince 142
launch 142
sophisticated 142
reward 142
literature 142
controlled 141
dramatic 141
ms 141
gi@@ 141
brothers 141
trick 141
there. 141
mortality 141
ladies 141
james 141
under@@ 141
radical 141
chicken 141
union 140
tested 140
sample 140
bomb 140
transformation 140
meter 140
replace 140
interview 140
mathematical 140
consumer 140
style 140
manufacturing 140
paul 140
youtube 140
5,000 140
bottle 140
ok. 140
chicago 140
underwater 140
metal 140
frame 139
taste 139
records 139
buying 139
section 139
hi 139
clothes 139
islands 139
ded 139
participate 139
writer 139
band 139
8 139
psychology 139
claim 139
crowd 138
swim 138
gain 138
amazon 138
ex@@ 138
disaster 138
psychological 138
fresh 138
2010 138
applied 138
perform 138
boxes 138
protected 138
laptop 138
horse 137
ch 137
border 137
neither 137
funding 137
studio 137
angry 137
russia 137
partners 137
mirror 137
goods 137
f 137
relevant 137
ad 137
traveling 137
hoping 137
roads 137
cu@@ 137
sensitive 137
correct 137
practical 137
2008 137
audio 136
innovative 136
dogs 136
ancestors 136
amounts 136
combined 136
pole 136
options 136
steve 136
memories 136
te 136
topic 136
dropped 136
burning 136
photographs 136
cooking 135
acts 135
tion. 135
director 135
ds 135
mon@@ 135
ii 135
4@@ 135
charles 135
organ 135
lessons 135
staff 135
v 135
do@@ 135
pollution 135
mention 135
younger 135
crash 135
newspaper 134
appreciate 134
gun 134
solved 134
ling 134
congress 134
struck 134
des 134
curve 134
mechanical 134
collected 134
remove 134
ters 134
pa@@ 134
unusual 134
symptoms 133
constant 133
quiet 133
unknown 133
embrace 133
shoot 133
bang 133
equally 133
features 133
wondered 133
hotel 133
bush 133
eastern 133
bag 133
alzheimer 133
vehicles 133
challenging 133
windows 133
collaboration 132
required 132
visible 132
logic 132
instrument 132
smile 132
existing 132
sts 132
danger 132
dancing 132
percentage 132
stream 132
ons 131
michael 131
frankly 131
allowing 131
closely 131
accurate 131
hydrogen 131
ru@@ 131
se 131
joined 131
hu@@ 131
german 131
largely 131
ap@@ 131
shaped 131
darwin 131
skill 131
potentially 131
2000 131
feeding 131
anderson 131
parking 131
occur 130
whales 130
explained 130
figures 130
anger 130
courage 130
technological 130
christmas 130
pacific 130
grandfather 130
wi@@ 130
admit 130
stronger 130
stayed 130
expand 130
globe 130
resolution 130
go@@ 130
ours 129
tonight 129
destruction 129
sunlight 129
lets 129
concrete 129
wherever 129
les 129
occurred 129
equality 129
cortex 129
outcome 129
busy 129
thin 129
wire 129
inspiration 129
centuries 129
violent 129
quarter 128
electronic 128
7 128
cave 128
ultimate 128
app 128
conclusion 128
score 128
mechanism 128
productive 128
economists 128
burn 128
boring 128
fishing 128
computing 128
ber@@ 128
generated 128
99 128
senses 128
pregnant 128
arab 128
ought 127
hits 127
afternoon 127
passionate 127
volume 127
providing 127
september 127
internal 127
rooms 127
peak 127
performing 127
piano 127
fingers 127
bg 127
nowhere 127
somewhat 127
solid 127
rocket 127
length 126
ears 126
sweet 126
error 126
theme 126
assume 126
medium 126
drinking 126
gu@@ 126
fake 126
welcome 126
remains 126
mid 126
abuse 126
su@@ 126
ni@@ 126
upper 126
proteins 126
faced 126
paris 126
presence 126
birthday 126
framework 126
imagined 125
wheel 125
musical 125
songs 125
reaching 125
operate 125
tions 125
axis 125
creature 125
w 125
string 125
cents 125
ss 125
tall 125
silk 125
mix 125
marketing 125
classes 125
mis@@ 125
ve@@ 124
false 124
mor@@ 124
application 124
teams 124
toxic 124
clip 124
causing 124
sight 124
housing 124
horrible 124
offered 124
efficiency 124
circumstances 123
rice 123
tape 123
placed 123
19th 123
linked 123
surely 123
transport 123
borders 123
corals 123
laugh 123
falls 123
breaking 123
measured 123
mu@@ 123
ding 123
dramatically 123
hero 123
boston 123
truck 123
abstract 123
overall 123
capitalism 123
france 123
soft 123
telescope 122
dozen 122
functions 122
applications 122
x@@ 122
invent 122
handle 122
surrounded 122
harm 122
judge 122
raising 122
combine 122
curiosity 122
relative 122
aspect 122
clinic 122
deaths 122
institution 122
tracking 121
insight 121
gut 121
fixed 121
treating 121
ment 121
angeles 121
recognized 121
up. 121
obsessed 121
infected 121
suffer 121
authority 121
resistance 121
maintain 121
channel 121
statement 121
il@@ 121
blog 121
determine 121
evening 120
ked 120
eggs 120
standards 120
painful 120
ans 120
awesome 120
ter@@ 120
grab 120
sustainability 120
multi 120
sir 120
appropriate 120
odd 120
dioxide 120
lake 120
climb 119
explanation 119
antibiotics 119
1@@ 119
contrast 119
obama 119
ler 119
interactions 119
bet 119
pair 119
thomas 119
equation 119
policies 119
celebrate 119
up@@ 119
sphere 119
reverse 119
&apos;@@ 119
toy 119
weak 119
architect 119
muslims 119
receive 119
relate 119
anxiety 119
raw 119
comfort 119
fears 118
cup 118
wine 118
transformed 118
ste@@ 118
mess 118
succeed 118
tasks 118
22 118
films 118
technique 118
bones 118
season 118
5 118
plate 117
subjects 117
conventional 117
chart 117
attacks 117
rising 117
agreed 117
overcome 117
ke@@ 117
jail 117
expectations 117
presentation 117
pushing 117
rational 117
ve 117
ol@@ 117
shoulder 117
careful 117
shall 117
samples 117
provided 117
flowers 117
grows 117
for@@ 117
puzzle 117
academic 116
corporate 116
spoken 116
hang 116
chip 116
arctic 116
phrase 116
joke 116
traveled 116
defense 116
sensors 116
collapse 116
fuels 116
finance 116
implications 116
aspects 116
suit 116
bike 116
severe 116
height 116
ga@@ 116
ver@@ 116
decline 116
extent 115
educational 115
greenhouse 115
limits 115
trend 115
gps 115
architects 115
egypt 115
gs 115
k. 115
flew 115
presented 115
gray 115
iphone 115
disorder 115
title 115
committed 115
har@@ 115
milk 115
stands 115
drives 115
grain 115
populations 114
clock 114
operation 114
emergency 114
ir@@ 114
cor@@ 114
friendly 114
clever 114
elephant 114
vessels 114
is. 114
vaccine 114
cheaper 114
islam 114
tion 114
meetings 114
element 114
rocks 114
seed 114
recording 114
connecting 114
monkeys 114
zoom 114
al. 114
wanting 114
ties 114
scary 114
phase 114
signed 114
exploring 114
identical 114
colleague 113
display 113
interestingly 113
expert 113
invite 113
carried 113
strangers 113
pure 113
practices 113
philosophy 113
breathe 113
escape 113
personality 113
paintings 113
romantic 113
21 113
existed 113
whale 113
concepts 113
aside 113
shut 113
desk 113
automatically 113
plays 113
africans 113
2007 113
pakistan 113
symbol 113
tax 113
golden 112
600 112
qu@@ 112
density 112
mal@@ 112
ugly 112
jo@@ 112
gulf 112
ies 112
intense 112
pi@@ 112
no@@ 112
loud 112
poorest 112
6@@ 112
rely 112
hardly 112
snow 112
reported 112
wikipedia 112
da@@ 112
domestic 112
shooting 112
searching 112
split 111
algorithm 111
recognition 111
magnetic 111
peer 111
ker 111
root 111
productivity 111
clouds 111
es@@ 111
cash 111
habitat 111
march 111
nose 111
enable 111
outcomes 111
50,000 111
printing 111
precisely 111
do. 111
distributed 111
tom 111
amongst 111
stranger 111
continued 111
paradigm 111
gates 111
hearts 111
tic 111
guide 110
engaging 110
secure 110
u.n. 110
classic 110
fed 110
us. 110
collecting 110
attempt 110
cook 110
divide 110
latin 110
walks 110
plans 110
seek 110
ul@@ 110
gentlemen 110
increases 110
shake 110
organism 110
ignore 110
distant 109
dirty 109
suggests 109
imaging 109
interacting 109
appears 109
fruit 109
reference 109
os 109
inequality 109
scan 109
infinite 109
hunger 109
properly 109
represented 109
plenty 109
federal 109
breathing 109
ed. 109
surveillance 109
economies 109
isolated 109
tap 109
neural 108
papers 108
ar 108
designs 108
robotic 108
commitment 108
el 108
silent 108
villages 108
ka 108
cooperation 108
directions 108
feature 108
adam 108
behavioral 108
fifth 108
underground 108
queen 108
heroes 108
fascinated 108
unexpected 108
shed 108
dense 108
removed 108
tip 108
agency 108
orbit 107
lovely 107
granted 107
organize 107
ge 107
cute 107
spiritual 107
contribute 107
cartoon 107
world. 107
95 107
bio@@ 107
barely 107
crying 107
hi@@ 107
floating 107
native 107
destroyed 107
blow 107
toilet 107
one. 107
wired 106
recovery 106
bee 106
chapter 106
farmer 106
obesity 106
bias 106
orange 106
ty 106
ot@@ 106
january 106
component 106
mice 106
prefer 106
repair 106
permanent 106
humor 106
consumers 106
dan 106
opposed 105
roots 105
illusion 105
refugee 105
drawn 105
exposed 105
disappear 105
disorders 105
6 105
instruments 105
makers 105
tube 105
ic 105
route 105
limit 105
passing 105
tea 105
ps 105
worker 105
um 105
lung 105
depend 105
arguments 105
accessible 105
ideal 105
65 105
attached 105
lens 105
gather 105
efforts 105
methods 104
diverse 104
sc@@ 104
reefs 104
sha@@ 104
tive 104
entered 104
80s 104
diagnosed 104
monitor 104
micro 104
tower 104
grass 104
apartment 104
.@@ 104
mammals 104
is@@ 104
robert 104
legacy 104
ha 104
pocket 104
spider 104
19 104
mainly 104
secondly 104
atlantic 103
depending 103
engagement 103
customers 103
micro@@ 103
5@@ 103
herself 103
rescue 103
pointed 103
controlling 103
males 103
ky 103
prices 103
chocolate 103
tes 103
stable 103
prototype 103
announced 103
religions 103
grateful 103
na@@ 103
writers 103
mate 103
apparently 103
hungry 103
pollen 103
divided 103
brave 103
club 103
fortunately 103
tries 103
microscope 103
2009 103
telephone 103
olds 102
behave 102
historical 102
reef 102
cow 102
likes 102
appeared 102
surgeon 102
armed 102
satellites 102
drove 102
dot 102
27 102
her@@ 102
accepted 102
van 102
kingdom 102
input 102
chest 102
laughing 102
spreading 102
nobel 102
stock 102
selection 102
photography 102
confident 102
spinal 102
genius 102
diabetes 101
pack 101
lu@@ 101
haiti 101
lighting 101
dedicated 101
frozen 101
insurance 101
interactive 101
inspire 101
silicon 101
depressed 101
enemy 101
hardware 101
banks 101
70s 101
wireless 101
extinct 101
ally 101
neuroscience 101
2005 101
journalist 101
captured 101
estimate 100
pool 100
backwards 100
football 100
pilot 100
storm 100
islamic 100
facial 100
dust 100
circuit 100
journalists 100
bur@@ 100
figuring 100
affordable 100
23 100
colony 100
neighbor 100
virtually 100
communications 100
balls 100
powered 100
yours 100
uncomfortable 100
reflect 100
proof 100
lifestyle 99
layers 99
earn 99
founded 99
translate 99
ley 99
seeds 99
adding 99
ent 99
thrown 99
korea 99
license 99
slides 99
transparency 99
chimpanzees 99
savings 99
involves 99
produces 99
evolve 99
ten@@ 99
views 99
struggling 99
universities 99
june 99
holds 98
flip 98
author 98
parties 98
nest 98
smoke 98
concern 98
agenda 98
texas 98
participants 98
anti@@ 98
penguins 98
ins 98
higgs 98
latest 98
host 98
visited 98
improvement 98
furniture 98
tears 98
ci@@ 98
frequency 98
powers 98
circles 98
ending 98
particle 98
finds 98
embedded 97
60s 97
forgotten 97
manhattan 97
time. 97
brief 97
microsoft 97
gang 97
lift 97
actor 97
ously 97
sheep 97
7@@ 97
citizen 97
letting 97
units 97
rapid 97
privilege 97
caring 97
counter 97
sta@@ 97
crucial 97
dignity 97
90s 97
suicide 97
measuring 97
uncle 97
locked 96
globally 96
fa@@ 96
entertainment 96
elections 96
parallel 96
vital 96
cast 96
tragedy 96
hello 96
exhibition 96
dozens 96
polio 96
thirds 96
till 96
strategies 96
ls 96
electronics 96
cord 96
youth 96
destroy 96
speakers 96
good. 96
inspiring 96
tired 96
reports 96
mc@@ 96
load 96
continues 96
volunteers 96
optimistic 96
dig 96
bags 96
affects 96
shock 96
we@@ 96
bars 96
adapt 95
incentives 95
rush 95
bell 95
st 95
failing 95
missed 95
neighborhoods 95
hire 95
provides 95
flower 95
un 95
the@@ 95
nets 95
contains 95
stanford 95
educated 95
agricultural 95
essence 95
touched 95
thing. 95
reminded 95
iron 95
headed 95
martin 95
encounter 95
synthetic 95
script 95
scales 95
sculpture 95
nurses 94
initial 94
talent 94
shirt 94
daughters 94
happier 94
oldest 94
pushed 94
probability 94
congo 94
mechanisms 94
ceiling 94
beer 94
integrated 94
painted 94
debt 94
funded 94
vertical 94
slavery 94
beliefs 94
council 94
ors 94
advance 94
ality 94
bicycle 94
angle 94
ridiculous 94
dress 94
spots 94
bears 94
earthquake 94
lecture 94
react 94
hanging 93
originally 93
repeat 93
fortune 93
governance 93
teenagers 93
ghana 93
determined 93
laser 93
official 93
pink 93
ce@@ 93
usual 93
bra@@ 93
chosen 93
in. 93
frank 93
ki@@ 93
meal 93
delivered 93
consequence 93
darkness 93
muscles 93
simplicity 93
conflicts 93
shadow 92
wa@@ 92
reform 92
feminist 92
hill 92
cre@@ 92
ak 92
immediate 92
le. 92
mayor 92
rarely 92
actors 92
stations 92
wise 92
go. 92
infection 92
myth 92
doors 92
th 92
theories 92
blame 92
liberal 92
secrets 92
journal 92
ear 92
functional 92
accidents 92
disappeared 92
achieved 92
dependent 92
charity 92
dolphins 92
19@@ 92
ations 91
terrorists 91
clients 91
liver 91
boundaries 91
picking 91
killer 91
4,000 91
protecting 91
pen@@ 91
narrow 91
cha@@ 91
elsewhere 91
graphic 91
dominant 91
served 91
afterwards 91
pu@@ 91
fe@@ 91
operations 91
stages 91
lions 91
chief 91
identified 91
review 91
fan 91
dictionary 91
speaker 90
sacred 90
balloon 90
threats 90
drill 90
owned 90
twenty 90
logical 90
voting 90
miracle 90
bible 90
magical 90
20,000 90
br@@ 89
narrator 89
po@@ 89
uganda 89
treatments 89
ses 89
jewish 89
subtle 89
objective 89
document 89
harvest 89
industries 89
origin 89
abilities 89
min@@ 89
golf 89
cry 89
scratch 89
drivers 89
controls 89
den@@ 89
reveal 89
programming 89
ator 89
external 89
contain 89
poet 89
autonomous 89
capita 89
fabric 88
us@@ 88
pace 88
resistant 88
reputation 88
stores 88
laid 88
chaos 88
greek 88
flexible 88
injury 88
rwanda 88
lawyer 88
criminal 88
favor 88
8@@ 88
demonstrate 88
elected 88
loop 88
quit 88
oxford 88
proper 88
war@@ 88
terrorist 88
transparent 88
photographer 88
silly 88
now. 88
aircraft 88
loves 88
tag 88
ching 87
trauma 87
symmetry 87
pulling 87
trucks 87
physicist 87
elephants 87
ger 87
sweden 87
sisters 87
ven@@ 87
extract 87
footprint 87
documents 87
glad 87
neuron 87
ford 87
sticks 87
airport 87
rio 87
includes 87
stones 87
ships 87
buried 87
discoveries 87
realm 87
excuse 87
ster 87
pitch 87
emerge 87
analyze 87
smarter 87
asks 87
throwing 87
lawyers 87
ignorance 87
mary 87
2004 87
extend 86
advertising 86
additional 86
ingredients 86
filter 86
motivation 86
alien 86
contract 86
sales 86
capability 86
partly 86
belong 86
dive 86
ethical 86
non@@ 86
weapon 86
begun 86
currency 86
thick 86
pile 86
inch 86
scores 86
recover 86
linear 86
stops 86
biologists 85
links 85
smoking 85
out. 85
landed 85
mat@@ 85
dressed 85
regime 85
animation 85
deserve 85
unclear 85
diagram 85
district 85
wash 85
250 85
impacts 85
tumors 85
inevitable 85
mode 85
mechanics 85
globalization 85
permission 85
underlying 85
pm 85
mixed 85
fluid 85
che@@ 85
broad 85
loving 85
tied 85
threw 85
rat 85
naked 85
ethiopia 85
ed@@ 85
assembly 84
disability 84
relations 84
.com 84
ensure 84
turkey 84
geographic 84
anonymous 84
sheet 84
trends 84
separated 84
panel 84
gh@@ 84
genocide 84
stroke 84
winning 84
spectacular 84
ecosystems 84
calculate 84
suffered 84
confused 84
emerged 84
ads 84
dish 84
frustrated 84
holy 84
victim 84
resilience 84
precise 84
innovations 84
characteristics 84
spin 83
opens 83
dynamics 83
tone 83
sal@@ 83
positions 83
crops 83
sleeping 83
symbols 83
assumptions 83
suggesting 83
surprisingly 83
delivery 83
depth 83
mail 83
vulnerability 83
dies 83
9@@ 83
shots 83
parliament 83
facility 83
pyramid 83
fought 83
fl@@ 83
fastest 83
85 83
shell 83
musicians 83
way. 83
heaven 83
handed 83
initially 83
plot 82
traditions 82
professionals 82
output 82
dear 82
bob 82
genetically 82
morality 82
much. 82
established 82
arrive 82
tackle 82
shelter 82
agencies 82
helpful 82
october 82
grandchildren 82
informed 82
26 82
revenue 82
shelf 82
chances 82
forming 82
not. 82
pound 82
odds 82
sentences 82
20@@ 82
ur@@ 82
database 82
tie 82
baseball 82
senior 82
category 82
printed 81
edges 81
tricks 81
tribes 81
im@@ 81
gonna 81
realizing 81
researcher 81
representation 81
officer 81
instructions 81
sensory 81
reducing 81
focusing 81
primarily 81
mindset 81
addiction 81
comment 81
pro 81
competitive 81
improving 81
returned 81
economist 81
ain 81
medication 81
supported 81
clothing 81
kers 81
toys 81
mad 81
bor@@ 81
unlikely 81
soviet 81
shrimp 81
observe 81
garbage 81
marry 81
florida 81
shopping 81
difficulty 81
ja@@ 81
2001 81
pig 81
richer 81
engineered 81
conclude 80
experimental 80
observation 80
suspect 80
christian 80
homework 80
sized 80
invested 80
han@@ 80
dinosaur 80
hitting 80
wildlife 80
promote 80
matrix 80
expanding 80
choosing 80
ger@@ 80
drew 80
tank 80
ia 80
ingly 80
extinction 80
pen 80
sti@@ 80
robust 80
threatened 80
poster 80
fits 80
mysterious 80
hollywood 80
pin@@ 80
28 80
assumption 80
32 80
consistent 80
detection 80
briefly 80
similarly 80
besides 80
lit 80
adopted 80
yes. 80
italy 80
2006 80
can@@ 80
entering 79
gre@@ 79
1990s 79
intervention 79
investing 79
17@@ 79
tra@@ 79
suggested 79
extended 79
genetics 79
gra@@ 79
subway 79
predictions 79
highway 79
firm 79
di 79
rebuild 79
prepare 79
polar 79
kick 79
luck 79
ism 79
answered 79
seats 79
measures 79
transfer 79
ra 79
head@@ 79
unable 79
crossing 79
conducted 79
fabulous 79
ic@@ 79
reduced 79
honestly 79
salt 79
trash 79
ill 79
photographed 79
terror 79
cats 79
consume 79
waters 79
constructed 79
trans@@ 79
gases 78
maker 78
tics 78
merely 78
ges 78
tour 78
washing 78
breaks 78
predicted 78
occasionally 78
thus 78
sur@@ 78
honey 78
surfaces 78
trains 78
imagery 78
jesus 78
fragile 78
located 78
ben 78
bottles 78
alize 78
res 78
gods 78
hum 78
1980s 78
pursue 78
gen@@ 78
experiencing 78
ys 78
syria 78
sted 78
30,000 78
passwords 78
plug 78
pump 78
flows 78
someday 78
unbelievable 78
nutrients 78
origami 78
nu@@ 78
discuss 78
skull 78
woke 78
bay 78
chi@@ 78
insights 78
witness 77
er. 77
barrier 77
transplant 77
rivers 77
ts. 77
structural 77
nurse 77
session 77
izing 77
conservative 77
ff 77
county 77
exception 77
contemporary 77
lands 77
strongly 77
gradually 77
capabilities 77
bri@@ 77
pretend 77
2011 77
farming 77
peter 77
diagnosis 77
lion 77
cop@@ 77
tuna 77
bizarre 77
ing@@ 77
va@@ 77
attitude 77
gathered 77
simultaneously 77
dialogue 77
translated 77
fathers 77
ard 77
perceive 77
bro@@ 77
judgment 77
sons 77
hip 77
widely 77
mb@@ 77
discipline 76
serving 76
mri 76
ceo 76
convert 76
800 76
elderly 76
smallpox 76
oxytocin 76
physician 76
scenario 76
120 76
precious 76
expansion 76
openness 76
bored 76
est 76
heal 76
refer 76
dating 76
publish 76
outer 76
jack 76
compelling 76
successfully 76
collaborative 76
smith 76
fer@@ 76
spanish 76
knee 76
jumped 76
mall 76
beneath 76
alized 76
targets 76
magnitude 76
imp@@ 76
agent 76
staying 76
sharp 76
aged 76
profoundly 76
tunnel 76
administration 76
reminds 76
entrepreneur 76
fiber 76
reduction 76
boom 76
dimension 75
lock 75
compete 75
fraction 75
shocked 75
excellent 75
attract 75
tribe 75
emails 75
fore@@ 75
6,000 75
tru@@ 75
biodiversity 75
owner 75
soap 75
desperately 75
download 75
cal@@ 75
explaining 75
ll 75
opera 75
gar@@ 75
seeking 75
all@@ 75
1970s 75
leverage 75
attractive 75
sits 75
domain 75
sport 75
viral 75
enables 75
replaced 75
ou@@ 75
calories 75
terrifying 75
tro@@ 75
rose 75
ent@@ 75
yorker 75
chips 75
gaps 75
rolling 75
instantly 75
via 75
ity 75
expecting 75
qualities 75
remembered 75
33 74
architectural 74
expertise 74
translation 74
vagina 74
whatsoever 74
dolphin 74
proposed 74
sciences 74
luckily 74
reliable 74
panels 74
poly@@ 74
bs 74
graduated 74
russian 74
ooh 74
shit 74
stability 74
organizing 74
variation 74
mines 74
explosion 74
vacuum 74
chairs 74
damn 74
win@@ 74
gathering 74
volunteer 74
previously 74
ble 74
rough 74
wider 74
nearby 74
2003 74
regret 74
breakfast 73
reactions 73
flowing 73
glasses 73
crack 73
participation 73
regardless 73
tracks 73
mobility 73
label 73
cake 73
believes 73
clay 73
footage 73
things. 73
neuro@@ 73
supporting 73
copyright 73
men@@ 73
id 73
insect 73
primitive 73
wh@@ 73
combat 73
hypothesis 73
inches 73
ches 73
wings 73
enabled 73
neck 73
file 73
rainforest 73
facilities 73
badly 73
urge 73
kills 73
ownership 73
hunting 73
elite 73
upset 73
burden 73
methane 73
radically 73
ments 73
and@@ 73
leap 73
aggressive 72
interviewed 72
collectively 72
exponential 72
customer 72
nowadays 72
ators 72
hired 72
periods 72
saturn 72
uncertainty 72
ence 72
significantly 72
socially 72
profile 72
approaches 72
articles 72
shifting 72
categories 72
drones 72
comments 72
keyboard 72
ful 72
freely 72
work. 72
estimates 72
performed 72
bal@@ 72
et@@ 72
life. 72
bubbles 72
guns 72
survived 72
cable 72
2012 72
aim 72
ze 72
eric 72
initiative 72
burned 72
mapping 72
array 72
influenced 72
unprecedented 72
artistic 72
quest 72
hiding 72
steal 72
warning 72
ros@@ 72
excitement 71
pri@@ 71
colonies 71
deforestation 71
description 71
my@@ 71
ear@@ 71
mood 71
substance 71
preserve 71
physicists 71
intuition 71
agents 71
index 71
ck 71
camps 71
ju@@ 71
optimism 71
meanwhile 71
rays 71
corporations 71
construct 71
corn 71
speaks 71
robotics 71
included 71
tragic 71
closest 71
skeleton 71
hackers 71
remaining 71
worthy 71
700 71
alizing 71
29 71
parks 71
detailed 71
people. 71
mike 71
prediction 71
microbial 71
pause 71
cancers 71
motivated 71
air@@ 71
mining 71
ko@@ 71
climbing 71
sink 71
limb 71
rubber 71
december 71
shipping 71
bl@@ 70
jim 70
pur@@ 70
mer@@ 70
compassionate 70
astonishing 70
homo 70
forgot 70
back@@ 70
threshold 70
ged 70
healing 70
grades 70
syndrome 70
expectancy 70
palm 70
educate 70
wheelchair 70
demands 70
tre@@ 70
&apos;clock 70
nerve 70
authorities 70
instant 70
sanitation 70
ics 70
extension 70
channels 70
homeless 70
labs 70
generating 70
ders 70
estimated 70
replicate 70
fin@@ 70
ized 70
accounts 70
know. 70
july 70
cl@@ 70
grandparents 70
thumb 70
improved 70
profits 70
simulation 70
alternatives 70
cambridge 70
ary 70
panic 70
sin@@ 69
deaf 69
gy 69
closing 69
adventure 69
storytelling 69
mainstream 69
sed 69
residents 69
eaten 69
ically 69
peoples 69
zones 69
needle 69
cur@@ 69
bug 69
listened 69
barriers 69
covering 69
perceived 69
factories 69
intuitive 69
portrait 69
decrease 69
static 69
rats 69
gore 69
contrary 69
bin 69
demonstration 69
prosperity 69
encouraged 69
canopy 69
fancy 69
tan@@ 69
fortunate 69
soup 68
uc@@ 68
denial 68
reasonable 68
ban@@ 68
foods 68
arrested 68
teenage 68
jellyfish 68
knife 68
drawings 68
tr@@ 68
joe 68
infections 68
propose 68
boats 68
soldier 68
temporary 68
humanitarian 68
mo 68
terrified 68
tends 68
posted 68
scenes 68
beating 68
bound 68
rhythm 68
absence 68
drone 68
36 68
teenager 68
civic 68
discovering 68
guilty 68
lonely 68
saharan 68
nights 68
comic 68
caves 68
horizon 68
seemingly 68
comparison 68
achievement 68
responses 68
annual 68
nsa 67
continents 67
pairs 67
indonesia 67
wealthy 67
sixth 67
earliest 67
cosmic 67
mil@@ 67
concerns 67
classical 67
wedding 67
opinions 67
generous 67
smooth 67
fires 67
ratio 67
upside 67
reflection 67
curriculum 67
arabic 67
pride 67
monitoring 67
tendency 67
uk 67
fo@@ 67
manager 67
cheese 67
titan 67
strategic 67
completed 67
italian 67
ritual 67
roles 67
offices 67
counting 67
tune 67
great. 67
graphics 67
garage 67
engines 67
sandwich 67
ance 67
charges 67
egg 67
farms 67
ably 67
obstacles 67
sensor 67
keys 67
interpretation 67
versions 67
traits 67
passenger 66
females 66
printer 66
vaccines 66
wires 66
occurs 66
comedy 66
psychologists 66
tropical 66
communicating 66
patents 66
officials 66
mac@@ 66
independence 66
friday 66
silver 66
hemisphere 66
helicopter 66
command 66
dy 66
gentleman 66
dilemma 66
offering 66
discrimination 66
ned 66
ner 66
jh 66
tically 66
yo@@ 66
blowing 66
navigate 66
division 66
shine 66
gram 66
bucks 66
endangered 66
habit 66
paralyzed 66
offers 66
explains 66
lungs 66
formula 66
stretch 66
pigs 66
cared 66
portion 66
deck 66
continuing 66
sadly 66
ecological 66
philosopher 66
rape 66
safely 66
et 66
courses 65
activists 65
destiny 65
exposure 65
tony 65
far@@ 65
nonprofit 65
raped 65
electrons 65
athletes 65
crew 65
restaurants 65
safer 65
believing 65
q@@ 65
alcohol 65
analogy 65
ying 65
injustice 65
zed 65
flash 65
norway 65
ning 65
fy 65
audiences 65
personalized 65
amazed 65
recycling 65
m. 65
boss 65
der@@ 65
bla@@ 65
blank 65
damaged 65
innocent 65
pat@@ 65
packed 65
spain 65
items 65
deepest 65
nutrition 65
investors 65
rope 65
asian 65
selfish 65
worms 65
healthier 65
au@@ 65
lowest 65
sacrifice 65
restore 65
connects 65
olympics 65
glamorous 65
plain 65
surrounding 65
bathroom 65
ize 65
cartoons 65
1950s 65
empire 65
asteroid 64
reserve 64
cr@@ 64
trigger 64
editor 64
ge. 64
pockets 64
encouraging 64
incentive 64
demographic 64
disagree 64
household 64
grace 64
il 64
manner 64
passive 64
purple 64
mold 64
receiving 64
shy 64
fu@@ 64
neat 64
sunday 64
continuous 64
af@@ 64
stepped 64
enterprise 64
applying 64
ecology 64
rituals 64
strike 64
ob@@ 64
crop 64
campus 64
ph@@ 64
hardest 64
cows 64
classrooms 64
ongoing 64
lamp 64
february 64
cycles 64
procedure 64
medicines 64
biologist 64
renewable 64
beautifully 64
remained 64
commit 64
distinct 64
smallest 64
ly. 64
guard 64
guarantee 64
gate 64
iness 64
pants 64
workforce 63
disabilities 63
2050 63
tubes 63
assets 63
sho@@ 63
winds 63
adapted 63
ers. 63
proven 63
bombs 63
blown 63
ish 63
ja 63
habits 63
airplanes 63
14@@ 63
clarity 63
uh 63
again. 63
miserable 63
collapsed 63
beijing 63
frequently 63
consumed 63
association 63
peers 63
institutional 63
dly 63
scanner 63
intensive 63
ignored 63
psychologist 63
branch 63
errors 62
stays 62
indigenous 62
intended 62
physicians 62
wed 62
empowered 62
yourselves 62
boards 62
lists 62
limitations 62
seas 62
cla@@ 62
headlines 62
planes 62
stored 62
derek 62
vietnam 62
pandemic 62
relief 62
frog 62
april 62
phantom 62
bend 62
trajectory 62
pursuit 62
strings 62
colored 62
correctly 62
yield 62
venture 62
coat 62
paths 62
ke 62
column 62
poems 62
package 62
authentic 62
banking 62
2015 62
retirement 62
ites 62
bullet 62
pray 62
ambitious 62
devil 62
purposes 62
sting 62
namely 62
terribly 62
william 62
chromosome 62
pan 62
failures 62
gear 62
appearance 62
henry 62
ticket 62
cooperate 62
ethnic 62
funds 62
wandering 61
workplace 61
prior 61
understands 61
harbor 61
staring 61
mutations 61
attacked 61
ph.d. 61
loads 61
trapped 61
ken 61
did. 61
med 61
berlin 61
nearest 61
prostate 61
bats 61
equations 61
fallen 61
cap@@ 61
carolina 61
affecting 61
multi@@ 61
santa 61
acknowledge 61
inevitably 61
pointing 61
distances 61
circuits 61
cotton 61
ist 61
top@@ 61
cuts 61
connectivity 61
pet 61
wound 61
recipe 61
nucleus 61
rings 61
w. 61
wheat 61
alexander 61
tongue 61
belly 61
dutch 61
zing 61
dropping 61
vegetables 61
1960 61
jane 61
tsunami 61
bond 61
approaching 61
loan 61
ly@@ 61
newspapers 61
wheels 61
are. 61
cleaning 61
down. 61
hal@@ 61
blindness 61
canadian 61
straightforward 61
chimpanzee 61
magnificent 61
howard 61
ach@@ 61
disabled 61
leaf 61
200,000 61
woods 60
locations 60
diving 60
cra@@ 60
smiling 60
fication 60
client 60
profession 60
challenged 60
ebola 60
actively 60
ces 60
relatives 60
sake 60
star@@ 60
minimum 60
doubled 60
approached 60
estate 60
passage 60
catching 60
landscapes 60
pr@@ 60
cliff 60
heading 60
proved 60
gained 60
nigerian 60
storage 60
dung 60
heritage 60
manipulate 60
app@@ 60
overwhelming 60
ups 60
gotta 60
etc. 60
musician 60
academy 60
bronx 60
ate. 60
well. 60
cul@@ 60
origins 60
ta 60
jet 60
introduction 60
neutral 60
johnson 60
stopping 60
sen@@ 60
couples 60
risky 60
15@@ 60
lord 60
temperatures 60
blah 60
all. 60
fibers 60
alarm 60
surgeons 60
prisoners 60
assistance 60
elementary 60
sustain 60
territory 60
candidate 60
bold 60
pers 60
downtown 60
trace 60
compromise 60
follows 60
kindness 60
activate 60
ths 60
ben@@ 60
computation 60
affairs 59
hat 59
installed 59
implement 59
hong 59
grave 59
therapies 59
default 59
predators 59
gr@@ 59
gallery 59
tent 59
sheets 59
specialized 59
coke 59
dumb 59
websites 59
40,000 59
nick 59
motors 59
despair 59
behalf 59
twin 59
preparing 59
indians 59
bel@@ 59
labeled 59
fired 59
overnight 59
scanning 59
describes 59
troops 59
fate 59
recommend 59
dawn 59
touching 59
defend 59
beaten 59
disney 59
consciously 59
tension 59
ry 59
basketball 59
enemies 59
antarctica 59
readers 59
paradox 59
ink 59
luxury 59
algae 59
describing 59
endless 59
ward 59
tiles 59
rating 59
narratives 59
unhappy 59
swiss 59
devastating 59
dopamine 59
donor 59
vice 59
abandoned 59
nelson 59
adjust 59
brooklyn 59
temple 59
transforming 59
vo@@ 59
impression 59
signature 59
claims 59
amazingly 59
fla@@ 59
resolve 59
visiting 59
hopes 59
constraints 59
convey 59
tin 59
remarkably 59
branches 59
bowl 59
ment. 59
parkinson 58
ngos 58
november 58
civilizations 58
sauce 58
stomach 58
50s 58
fbi 58
ideology 58
randomly 58
competing 58
responded 58
historically 58
managers 58
interior 58
expressions 58
supplies 58
day. 58
port 58
confront 58
backs 58
acid 58
reactor 58
republic 58
slums 58
clo@@ 58
bat 58
crimes 58
cape 58
concert 58
pal@@ 58
witnessed 58
accountability 58
saudi 58
sol@@ 58
dar@@ 58
sexy 58
mathematicians 58
tight 58
welfare 58
hometown 58
assemble 58
accuracy 58
promised 58
dominated 58
years. 58
jeff 58
vessel 58
kidney 58
bas@@ 58
phenomena 58
planetary 58
mandela 58
awkward 58
laughed 58
37 58
coach 58
halfway 58
l.a. 58
spacecraft 58
simpler 58
elegant 58
realization 58
locally 58
lanes 58
slime 58
stack 58
sun@@ 58
atom 58
pl@@ 58
trivial 58
hacking 58
observed 58
sperm 58
masters 58
geometry 58
captain 58
ari@@ 58
bacterial 58
buses 58
chronic 58
advances 58
peaceful 58
shops 58
ars 58
alization 57
hormones 57
nonetheless 57
nuts 57
teaches 57
je@@ 57
mer 57
august 57
sto@@ 57
selected 57
tele@@ 57
mud 57
fault 57
delhi 57
ran@@ 57
protest 57
ag 57
ct 57
diameter 57
countless 57
historic 57
telescopes 57
sch@@ 57
ted. 57
atomic 57
land@@ 57
mosquito 57
ne 57
criteria 57
sensation 57
planned 57
wrap 57
bite 57
binary 57
transmission 57
schizophrenia 57
ent. 57
simplest 57
worrying 57
disgust 57
aesthetic 57
rent 57
glamour 57
brian 57
pla@@ 57
tissues 57
intimate 57
extraordinarily 57
bre@@ 57
assumed 57
proposition 57
a.m. 57
calm 57
builds 57
pad 57
infant 57
relation 57
bridges 57
imagining 57
corners 57
passes 57
striking 56
ham 56
altitude 56
shocking 56
recognizing 56
seawater 56
entropy 56
request 56
alism 56
dirt 56
clinics 56
arguing 56
guards 56
noises 56
allies 56
regularly 56
shortly 56
stra@@ 56
jazz 56
toes 56
interviews 56
machinery 56
ori@@ 56
supermarket 56
politically 56
ai 56
backyard 56
bother 56
proportion 56
nodes 56
ev@@ 56
activist 56
blogs 56
ping 56
pharmaceutical 56
den 56
assignment 56
lo 56
mt 56
platforms 56
usa 56
por@@ 56
breeding 56
autistic 56
glacier 56
foundations 56
tomato 56
ched 56
pizza 56
minus 56
dan@@ 56
cap 56
fifty 56
installation 56
authors 56
cellular 56
hopeful 56
orchestra 56
minority 56
pill 56
orders 56
intimacy 56
coastal 56
pan@@ 56
stephen 56
fisheries 56
significance 56
harmony 56
suck 56
fusion 56
alongside 56
concentration 56
approved 56
parenting 56
involve 56
manual 56
ering 56
expedition 56
journalism 56
pie 56
realistic 56
lean 56
concentrated 55
leonardo 55
yard 55
ered 55
taliban 55
burst 55
livestock 55
bangladesh 55
zealand 55
nevertheless 55
flu@@ 55
ubiquitous 55
precision 55
ves 55
towns 55
agreement 55
glue 55
hills 55
sends 55
sheer 55
sizes 55
hook 55
chamber 55
kb 55
l. 55
10@@ 55
electron 55
cocaine 55
melt 55
format 55
eve 55
expressed 55
emotionally 55
password 55
hom@@ 55
controversial 55
lifted 55
delicious 55
checked 55
perceptions 55
yo 55
mp@@ 55
regulations 55
serves 55
strip 55
fying 55
prevention 55
greece 55
murder 55
electrodes 55
55 55
cy@@ 55
kennedy 55
berkeley 55
batteries 55
findings 55
consensus 55
partnership 55
clue 55
charged 55
drag 55
laughs 55
shanghai 55
ving 55
flags 55
2002 55
formation 55
missions 55
attitudes 55
stolen 55
candidates 55
obese 54
trips 54
flo@@ 54
secretary 54
discussions 54
immense 54
demonstrated 54
marketplace 54
landing 54
seal 54
abundance 54
ity. 54
hunt 54
impressive 54
rethink 54
prey 54
icon 54
feynman 54
visualize 54
predictable 54
truths 54
migration 54
computational 54
reproduce 54
planted 54
ir 54
advocate 54
establish 54
ko 54
tering 54
tor@@ 54
shining 54
separation 54
chemotherapy 54
rb 54
entry 54
sk@@ 54
work@@ 54
sm 54
marrow 54
nerves 54
trusted 54
plastics 54
observations 54
enjoyed 54
cattle 54
moore 54
irony 54
hierarchy 54
realities 54
ya 54
memes 54
grant 54
ory 54
inf@@ 54
returning 54
consuming 54
dri@@ 54
reporting 54
stu@@ 54
san@@ 54
mount 54
don@@ 54
determines 54
tables 54
bills 54
contributed 54
ats 54
spinning 54
destroying 54
calculus 54
legitimate 54
contribution 54
squ@@ 54
bon@@ 54
down@@ 54
regulation 54
ali@@ 54
privileged 54
taxes 53
documentary 53
tur@@ 53
maximum 53
dr@@ 53
ently 53
intersection 53
&apos;t. 53
royal 53
shakespeare 53
associate 53
microscopic 53
lin@@ 53
intensity 53
1960s 53
succeeded 53
cheat 53
grasp 53
thrive 53
blew 53
technically 53
ab 53
spatial 53
kiss 53
spill 53
sand@@ 53
cs 53
reflected 53
drops 53
black@@ 53
prince 53
gesture 53
monster 53
watts 53
cru@@ 53
hated 53
1980 53
variations 53
mesh 53
glucose 53
ana 53
predator 53
intention 53
ous. 53
korean 53
8,000 53
pills 53
kin@@ 53
shing 53
documented 53
kong 53
topics 53
48 53
42 53
duty 53
fri@@ 53
hormone 53
pos@@ 53
sexually 53
iconic 53
stairs 53
publishing 53
delivering 53
bedroom 53
kin 53
rejected 53
carpet 53
son@@ 53
hy@@ 53
zo@@ 53
answering 53
eliminate 53
hoped 53
curves 53
pit 53
climbed 52
democracies 52
professors 52
immigration 52
60,000 52
measurements 52
enforcement 52
illustrate 52
approximately 52
bugs 52
exploit 52
lincoln 52
autonomy 52
goodbye 52
stigma 52
enjoying 52
ceremony 52
shore 52
duck 52
puzzles 52
acceptance 52
retina 52
insulin 52
drum 52
ce 52
nitrogen 52
mentally 52
coverage 52
g. 52
exhibit 52
integrate 52
distinction 52
olympic 52
screaming 52
girlfriend 52
resist 52
screens 52
embarrassing 52
char@@ 52
heavily 52
infectious 52
thrilled 52
revealed 52
clinton 52
meals 52
shi@@ 52
ws 52
visualization 52
belongs 52
asleep 52
ye@@ 52
anticipate 52
crossed 52
terrain 52
bun@@ 52
2020 52
frames 52
47 52
punishment 52
adopt 52
slower 52
rotate 52
strands 52
qaeda 52
occurring 52
ite 52
viewer 52
voted 52
peculiar 52
ministry 52
cat@@ 52
dreaming 52
happened. 52
j 52
supreme 52
philosophical 52
functioning 52
deals 52
automobile 52
memorial 51
visually 51
barrel 51
shower 51
expanded 51
broader 51
kes 51
bruno 51
glimpse 51
priority 51
targeted 51
vary 51
breakthrough 51
canvas 51
satisfaction 51
summit 51
lee 51
c. 51
tesla 51
selves 51
vers 51
onstage 51
evolving 51
interpret 51
congestion 51
dates 51
skeletal 51
likelihood 51
ns 51
huh 51
texts 51
lan@@ 51
arthur 51
deployed 51
survivors 51
pulls 51
representative 51
happily 51
publicly 51
universes 51
boots 51
detector 51
desperate 51
criminals 51
34 51
bulb 51
mentor 51
tiger 51
regard 51
72 51
penguin 51
textbooks 51
rolled 51
frightening 51
creator 51
chase 51
les. 51
legislation 51
accomplish 51
messy 51
revolutionary 51
alpha 51
masses 51
mankind 51
ots 51
cricket 51
waited 51
tolerance 51
covers 51
argued 51
lap 51
careers 51
perspectives 51
true. 51
trap 51
wooden 50
accomplished 50
insane 50
aristotle 50
stressed 50
1999 50
1998 50
amy 50
horror 50
horizontal 50
gro@@ 50
composition 50
informal 50
wrapped 50
ton@@ 50
flavor 50
boundary 50
fantasy 50
horses 50
calculations 50
struggled 50
cube 50
usage 50
employment 50
carries 50
rac@@ 50
episode 50
indicate 50
ay 50
ba 50
responding 50
momentum 50
attach 50
economically 50
timing 50
priorities 50
clubs 50
sticking 50
ines 50
sufficient 50
inherently 50
lethal 50
pregnancy 50
raises 50
beetle 50
addressing 50
freezing 50
concentrate 50
dare 50
mask 50
gorgeous 50
metric 50
biomass 50
sion 50
transmit 50
nor@@ 50
nasty 50
foster 50
louis 50
norms 50
chains 50
crap 50
literacy 50
ents 50
suggestion 50
spell 50
jumping 50
jungle 50
toilets 50
jihad 50
ku@@ 50
explored 50
inventor 50
continuously 50
tly 50
afghan 50
switched 50
sierra 50
leather 50
embracing 50
fence 50
16@@ 50
winner 50
able. 50
dial 50
destination 50
ists 50
humility 50
ology 50
craft 50
koran 50
intact 50
fies 50
sensing 50
spiders 49
scott 49
belt 49
span 49
pencil 49
riding 49
deadly 49
philosophers 49
recession 49
pol@@ 49
trading 49
investments 49
greenland 49
bow 49
recycled 49
utterly 49
refused 49
stri@@ 49
pipe 49
andrew 49
mimic 49
se. 49
drunk 49
watson 49
phenomenal 49
geography 49
juice 49
switzerland 49
genomes 49
ina 49
pathways 49
marks 49
rome 49
pleasant 49
ireland 49
integration 49
rejection 49
tide 49
130 49
respected 49
washed 49
attracted 49
ren@@ 49
contributing 49
investigation 49
reaches 49
empower 49
punch 49
2014 49
buttons 49
streams 49
350 49
apollo 49
gravitational 49
cart 49
unconscious 49
league 49
com@@ 49
replacing 49
reader 49
kit 49
item 49
suspended 49
comparing 49
aw@@ 49
repeated 49
tor 49
stasi 49
pulse 49
borrow 49
select 49
picks 49
monterey 49
cage 49
mere 49
screening 49
steam 49
analyzed 49
cares 49
ego 49
clu@@ 49
awe 49
commons 49
ban 49
accelerate 49
kicked 49
phoenix 49
anniversary 49
sculptures 49
18th 48
ation. 48
disasters 48
brazilian 48
overwhelmed 48
deserves 48
chasing 48
mps 48
alist 48
ron@@ 48
remotely 48
ordered 48
tuned 48
cli@@ 48
commission 48
meets 48
kevin 48
recall 48
tanzania 48
que 48
scans 48
chimps 48
egyptian 48
longevity 48
cruel 48
prosthetic 48
tar@@ 48
contained 48
representing 48
reasoning 48
2030 48
accelerating 48
ex 48
texture 48
comics 48
shifted 48
deciding 48
candy 48
dness 48
editors 48
encountered 48
injuries 48
acres 48
traumatic 48
conduct 48
filling 48
constitution 48
virginia 48
fre@@ 48
sw 48
sa 48
refuse 48
owners 48
potent 48
incident 48
plan@@ 48
principal 48
award 48
israeli 48
story. 48
officers 48
dose 48
implemented 48
preparation 48
strikes 48
folding 48
kindergarten 48
proposal 48
poison 48
cope 48
frontier 48
acquired 48
sequences 48
sam 48
sale 48
1,500 48
shorter 48
wore 48
aliens 48
useless 48
mastery 48
attempts 48
jews 48
beam 48
routine 48
copies 48
see@@ 48
injured 48
charlie 48
fied 48
1.5 48
wal@@ 48
bamboo 47
whoever 47
counter@@ 47
cream 47
awake 47
spe@@ 47
equals 47
handful 47
ibm 47
stare 47
reject 47
spray 47
interventions 47
probe 47
hand@@ 47
meme 47
20s 47
laptops 47
prisoner 47
settled 47
detroit 47
melting 47
implant 47
meditation 47
soccer 47
mathematician 47
book@@ 47
canyon 47
tear 47
sectors 47
may@@ 47
vacation 47
occupy 47
snake 47
she@@ 47
entrance 47
talented 47
cro@@ 47
desktop 47
fi 47
ass 47
quarters 47
affair 47
wor@@ 47
sooner 47
cracks 47
sahara 47
weigh 47
sexuality 47
pouring 47
thirty 47
mapped 47
shifts 47
é@@ 47
ging 47
activated 47
theoretical 47
debris 47
biosphere 47
flesh 47
uniform 47
sadness 47
tale 47
pipes 47
31 47
prote@@ 47
virgin 47
hawaii 47
discussing 47
racing 47
prescription 47
tw@@ 47
firing 47
generates 47
sweat 47
96 47
spare 47
pour 47
gandhi 47
marked 47
practically 47
earned 47
joint 47
overhead 47
stepping 47
hel@@ 47
confronted 47
mushroom 47
seattle 47
acceptable 47
ster@@ 47
detected 47
bio 47
ingredient 47
multiply 47
siblings 47
hatred 47
alice 46
intent 46
rover 46
ang@@ 46
bat@@ 46
membrane 46
gardens 46
1990 46
feeds 46
deception 46
ce. 46
ser@@ 46
collaborate 46
exceptions 46
couch 46
knock 46
str@@ 46
occasion 46
identities 46
liberty 46
immigrants 46
disturbing 46
hunter 46
habitats 46
roofs 46
gains 46
systematically 46
youngest 46
lottery 46
crude 46
worldview 46
chile 46
asteroids 46
palestinian 46
zes 46
festival 46
25,000 46
caps 46
ey 46
ultra 46
salary 46
sequencing 46
exotic 46
accurately 46
rains 46
transit 46
dough 46
ki 46
example. 46
re. 46
smartphone 46
lasting 46
coin 46
ms. 46
stimulation 46
convention 46
ot 46
diarrhea 46
surgical 46
benjamin 46
spreads 46
hmm 46
loses 46
mating 46
compounds 46
harry 46
delay 46
calculated 46
farther 46
statistical 46
loose 46
tal@@ 46
za 46
circular 46
intentions 46
plankton 46
transformative 46
iz@@ 46
destructive 46
15,000 46
reserves 46
ridge 46
christians 46
els 46
commodity 46
ian 46
interconnected 46
clusters 46
catholic 46
digit 46
headquarters 46
tin@@ 46
yards 46
seventh 46
acids 46
torture 46
planting 46
dean 46
stake 46
gging 46
microphone 46
warmer 46
luther 46
chess 46
cluster 46
venus 46
asset 46
netherlands 46
tim 46
slice 46
und@@ 46
tar 46
millimeter 45
cylinder 45
bot@@ 45
encyclopedia 45
shoulders 45
cousin 45
storms 45
collision 45
singapore 45
programmers 45
grains 45
cated 45
rage 45
disciplines 45
saturday 45
traditionally 45
sometime 45
guitar 45
weighs 45
ambition 45
decent 45
ver 45
matched 45
surgeries 45
renewables 45
codes 45
preventing 45
plates 45
pays 45
150,000 45
abraham 45
deficit 45
ani@@ 45
ash@@ 45
mushrooms 45
cardboard 45
logging 45
cosmos 45
stro@@ 45
gross 45
id@@ 45
lt 45
programmed 45
amazing. 45
coding 45
ty@@ 45
adds 45
ined 45
shipped 45
sp 45
tangible 45
presidential 45
mozart 45
fever 45
involving 45
album 45
log 45
smells 45
shaking 45
hostile 45
demo 45
7,000 45
iling 45
noticing 45
semi 45
bind 45
nairobi 45
problem. 45
ipod 45
fluorescent 45
98 45
philadelphia 45
knees 45
# 45
logists 45
cloth 45
trac@@ 45
scaling 45
slaves 45
fatal 45
lined 45
seti 45
noisy 45
pin 45
widespread 45
turing 45
tively 45
longest 45
adoption 45
wil@@ 45
rewards 44
elaborate 44
steven 44
gestures 44
len@@ 44
emergence 44
chat 44
dishes 44
entities 44
portraits 44
acquire 44
uniquely 44
sel@@ 44
atory 44
mutation 44
hurricane 44
screw 44
qualified 44
managing 44
lifespan 44
mel@@ 44
wrist 44
prisons 44
massively 44
crispr 44
threatening 44
philanthropy 44
critically 44
sar@@ 44
catastrophic 44
famously 44
staircase 44
voters 44
neocortex 44
folded 44
practiced 44
sections 44
hugely 44
slight 44
1984 44
dor@@ 44
apes 44
racism 44
fire@@ 44
offspring 44
instruction 44
defining 44
cri@@ 44
lev@@ 44
squares 44
hor@@ 44
apartments 44
mixing 44
anxious 44
practicing 44
albert 44
pose 44
appeal 44
orientation 44
ced 44
nano 44
til@@ 44
procedures 44
snowden 44
loaded 44
broadcast 44
blessed 44
fans 44
prototypes 44
install 44
individually 44
cin@@ 44
ale 44
thinkers 44
funeral 44
chan@@ 44
digging 44
parasite 44
law@@ 44
tran@@ 44
tive. 44
grocery 44
instinct 44
donors 44
abundant 44
therapist 44
mcdonald 44
tipping 44
jones 44
astronomy 44
artwork 44
authenticity 44
ze@@ 44
alike 44
enti@@ 44
altogether 43
nicely 43
patch 43
heating 43
columns 43
empowering 43
adaptive 43
altruism 43
integrity 43
1994 43
wasted 43
guilt 43
oning 43
beds 43
jeans 43
losses 43
frontal 43
weekend 43
considering 43
redwood 43
compound 43
def@@ 43
skeptical 43
back. 43
republican 43
edit 43
regional 43
drought 43
ve. 43
racial 43
iranian 43
dro@@ 43
rescued 43
physiology 43
atlanta 43
consent 43
0@@ 43
inclusive 43
protective 43
maintenance 43
millennia 43
twist 43
counts 43
hood 43
i. 43
1995 43
travels 43
offshore 43
lg 43
tical 43
ck@@ 43
successes 43
play@@ 43
divorce 43
filmed 43
apps 43
symphony 43
stadium 43
so. 43
sy 43
biases 43
tk 43
17th 43
fishermen 43
systematic 43
cia 43
bol@@ 43
cousins 43
counted 43
checking 43
logy 43
logo 43
promises 43
eu@@ 43
dictionaries 43
warrior 43
unfortunate 43
empowerment 43
chromosomes 43
pressing 43
server 43
texting 43
salmon 43
wage 43
30s 43
graphs 43
ble@@ 43
assuming 43
shadows 43
cooling 43
pot 43
optical 43
highlight 43
posed 43
cardiac 43
tom@@ 43
spark 43
laying 43
mammal 43
ff@@ 43
loans 43
by@@ 43
envelope 43
baseline 43
fda 43
converted 43
spi@@ 43
copied 43
naive 43
hack 43
whistle 43
kar@@ 43
wishes 43
purely 43
ski 43
mosquitoes 43
goodness 43
junk 43
variable 42
modest 42
kilometer 42
gged 42
nonviolent 42
lane 42
terminal 42
behold 42
newton 42
wright 42
prayer 42
visions 42
intriguing 42
lin 42
corporation 42
ultrasound 42
coca 42
museums 42
spite 42
grounds 42
slave 42
returns 42
formal 42
frogs 42
d.c. 42
efficiently 42
towers 42
households 42
famine 42
helium 42
verb 42
wet 42
absorb 42
reforms 42
ise 42
richest 42
sticky 42
skip 42
cooperative 42
achieving 42
mama 42
copying 42
supportive 42
ens 42
millennium 42
primates 42
producers 42
seals 42
rs 42
launching 42
ironically 42
tt 42
rises 42
accepting 42
2013 42
bonds 42
1930s 42
anatomy 42
din@@ 42
1950 42
enabling 42
favorites 42
radi@@ 42
generic 42
ming 42
00@@ 42
eyed 42
shoe 42
tions. 42
lit@@ 42
grief 42
fitness 42
fac@@ 42
promoting 42
obsolete 42
marathon 42
recovered 42
investigate 42
mumbai 42
exam 42
scientifically 42
12,000 42
submit 42
caribbean 42
viewed 42
mus@@ 42
toll 42
worm 42
cos@@ 42
dancers 42
phd 42
ay@@ 42
networking 42
contest 42
ville 42
val@@ 42
holocaust 42
piles 42
mur@@ 42
oven 42
australian 42
cola 42
sters 41
rick 41
dave 41
transported 41
norm 41
bil@@ 41
progression 41
sor@@ 41
interesting. 41
diagnostic 41
invitation 41
od@@ 41
boost 41
armor 41
operates 41
hun@@ 41
cyrus 41
jealousy 41
aries 41
declared 41
promising 41
premise 41
politician 41
divine 41
copenhagen 41
elizabeth 41
alex 41
libya 41
ironic 41
revolutions 41
veterans 41
hen@@ 41
typing 41
lebanon 41
vocabulary 41
entrepreneurship 41
appreciation 41
colorful 41
rap@@ 41
celebration 41
generosity 41
abroad 41
rolls 41
hydro@@ 41
modeling 41
accountable 41
milky 41
elevator 41
embarrassed 41
tweet 41
demanding 41
alists 41
census 41
surround 41
ny 41
n. 41
pleased 41
wrong. 41
surveys 41
visitors 41
fails 41
alphabet 41
fragments 41
markers 41
rm 41
virtue 41
shelves 41
ethics 41
doses 41
pedestrian 41
let@@ 41
slip 41
shaping 41
va 41
reinvent 41
browser 41
bul@@ 41
deploy 41
distinguish 41
together. 41
enormously 41
govern 41
bin@@ 41
38 41
innovate 41
metabolism 41
obsession 41
friendship 41
grand@@ 41
lobby 41
specialist 41
hop 41
at. 41
remembering 41
joseph 41
em@@ 41
brutal 41
vocal 41
minimize 41
viewing 41
leone 41
frustration 41
monday 41
votes 41
adolescence 41
genuine 41
archive 41
sugars 41
terrific 41
analyzing 41
basement 41
princess 41
slept 41
pat 41
disappointed 41
lightning 41
quietly 41
scholars 41
diver@@ 41
surviving 41
expectation 41
spends 41
observing 41
negotiate 41
friction 40
displays 40
analog 40
convenient 40
sl@@ 40
diplomacy 40
synapses 40
heroic 40
operated 40
enhance 40
jupiter 40
skilled 40
founder 40
cholera 40
mid@@ 40
frustrating 40
displaced 40
bitcoin 40
59 40
rob 40
inform 40
discussed 40
triangle 40
cement 40
hence 40
fog 40
ved 40
bloody 40
equipped 40
ace 40
mature 40
bacterium 40
cr 40
romance 40
dy@@ 40
viable 40
greatly 40
researching 40
minded 40
ft 40
founding 40
upward 40
releasing 40
egyptians 40
chef 40
frightened 40
daddy 40
checks 40
jf 40
marker 40
de. 40
interfaces 40
emphasize 40
ped 40
ashamed 40
lp 40
arabia 40
brands 40
regulate 40
wea@@ 40
o. 40
ol 40
belonging 40
revenues 40
speeds 40
wells 40
settle 40
sh 40
reactors 40
gentle 40
segment 40
outbreak 40
iceland 40
playful 40
larry 40
sounded 40
suits 40
waking 40
lectures 40
blo@@ 40
stealing 40
translator 40
pra@@ 40
filters 40
dge 40
treaty 40
entrepreneurial 40
forum 40
automatic 40
pond 40
goat 40
cookie 40
publication 40
artifacts 40
mutual 40
97 40
col@@ 40
strengths 40
dome 40
tional 40
gifts 40
convicted 40
lar@@ 40
hol@@ 40
ultraviolet 40
shrink 40
locomotion 40
argentina 40
laboratories 40
lagos 40
sty 40
lia 40
flights 40
judgments 40
metals 40
employee 40
shes 40
tips 40
gasoline 40
unfair 40
peru 40
tokyo 40
alaska 40
improvements 40
republicans 40
hacker 40
boiling 40
aluminum 40
forgive 40
bare 40
mycelium 40
simulate 40
singer 39
scream 39
shoots 39
celebrated 39
zoo 39
secular 39
minerals 39
lately 39
aunt 39
beetles 39
gue 39
steady 39
anytime 39
collaborators 39
ngo 39
tuesday 39
floors 39
renaissance 39
predicting 39
jerusalem 39
examine 39
ka@@ 39
rehabilitation 39
quo 39
squid 39
patience 39
newly 39
ron 39
tanks 39
eighth 39
abed 39
donated 39
justify 39
directors 39
indus 39
holiday 39
wins 39
sms 39
teddy 39
b. 39
twins 39
columbia 39
bali 39
indi@@ 39
tagged 39
more. 39
judges 39
gigantic 39
asthma 39
deci@@ 39
baker 39
mp 39
victory 39
participating 39
hut 39
poll 39
op 39
thankfully 39
pancreatic 39
willingness 39
magazines 39
ti 39
spo@@ 39
fixing 39
applies 39
rna 39
honored 39
float 39
him. 39
independently 39
manipulation 39
delight 39
potato 39
ker@@ 39
conferences 39
shells 39
wiped 39
costa 39
pricing 39
mic 39
grabbed 39
44 39
gan@@ 39
hot@@ 39
idea. 39
tags 39
suspicious 39
64 39
numerous 39
profitable 39
sin 39
rockets 39
isolation 39
kidding 39
dreamed 39
talents 39
rou@@ 39
ill@@ 39
custom 39
psycho@@ 39
convincing 39
processor 39
hyper 39
mosque 39
coordination 39
courageous 39
sailing 39
vegetable 39
themes 39
finishing 39
stretched 39
harsh 39
airline 39
celebrity 39
staggering 39
instances 39
joel 39
clues 39
tic@@ 39
iled 39
repeatedly 39
medications 39
hal 38
beneficial 38
mirrors 38
parachute 38
year. 38
existential 38
admire 38
headline 38
jar 38
sarah 38
daniel 38
humble 38
update 38
apples 38
verbal 38
whistling 38
excess 38
heroin 38
budgets 38
inherited 38
consists 38
mixture 38
gel 38
harness 38
cockroach 38
composed 38
payment 38
qui@@ 38
sla@@ 38
52 38
bath 38
frequencies 38
web@@ 38
jokes 38
buddha 38
obstacle 38
pipeline 38
paralysis 38
redesign 38
spiral 38
cheating 38
listed 38
tightly 38
easiest 38
stimulate 38
asylum 38
backgrounds 38
dr 38
dp 38
av@@ 38
statistic 38
referred 38
substantial 38
works. 38
reflects 38
syrian 38
documenting 38
montana 38
evident 38
acoustic 38
rigid 38
pathway 38
honesty 38
metaphors 38
hybrid 38
1,@@ 38
assure 38
ancestor 38
helmet 38
inherent 38
experimenting 38
linking 38
dug 38
jumps 38
desires 38
harmful 38
owe 38
oo@@ 38
sil@@ 38
psychiatric 38
logically 38
thereby 38
assistant 38
tribal 38
rooted 38
senate 38
sylvia 38
sions 38
motivate 38
laden 38
ative 38
wi 38
condoms 38
inventions 38
gla@@ 38
yemen 38
exponentially 38
disruptive 38
decides 38
reviews 38
mac 38
crowded 38
deliberately 38
glow 38
sought 38
corrupt 38
processed 38
alan 38
norden 38
characteristic 38
sia 38
86 38
squeeze 38
symmetrical 38
commerce 38
joshua 38
distribute 38
flood 38
short@@ 38
consideration 38
thrust 38
brick 38
pit@@ 38
personalities 38
cables 38
eats 38
joining 38
penis 38
invasive 38
assembled 38
mouths 38
danny 38
rap 38
rhythms 38
yale 38
midnight 38
moms 38
copper 38
dump 38
projection 37
morally 37
arrow 37
comp@@ 37
cambodia 37
grandma 37
tricky 37
knocked 37
zimbabwe 37
ery 37
lifelong 37
crows 37
overseas 37
bless 37
ratings 37
reviewed 37
nightmare 37
limbs 37
43 37
foie 37
competitors 37
iceberg 37
spontaneously 37
enthusiasm 37
supports 37
identifying 37
questioning 37
dragon 37
embraced 37
hallucinations 37
addressed 37
metabolic 37
presenting 37
relates 37
lat@@ 37
beside 37
avatar 37
sm@@ 37
rows 37
posters 37
survivor 37
attend 37
buddhist 37
post@@ 37
gun@@ 37
unacceptable 37
mul@@ 37
matches 37
surplus 37
ur 37
fairness 37
antibiotic 37
countryside 37
mattered 37
fights 37
corresponds 37
soci@@ 37
check@@ 37
ther 37
pervasive 37
infrared 37
moreover 37
gaining 37
multinational 37
pine 37
conservatives 37
dre@@ 37
ologist 37
summarize 37
iq 37
im 37
yeast 37
calendar 37
shouting 37
earning 37
astronomers 37
centimeter 37
pressures 37
mann 37
migrate 37
writes 37
tenth 37
compute 37
wn 37
retreat 37
innovators 37
finite 37
ization 37
passions 37
firmly 37
scheme 37
statistically 37
pped 37
0.@@ 37
fungi 37
mic@@ 37
midst 37
pete 37
pets 37
electromagnetic 37
emerges 37
explode 37
900 37
offs 37
lama 37
gaza 37
eternal 37
ely 37
swing 37
ross 37
confined 37
aims 37
russians 37
ceos 37
incomplete 37
enters 37
reflective 37
defeat 37
tier 37
traces 37
edward 37
entitled 37
2,@@ 37
pursuing 37
angiogenesis 37
craig 37
authoritarian 37
registered 37
utility 37
today. 37
lesbian 37
grammar 37
sail 37
cups 37
drama 37
guidance 37
relativity 37
angles 37
correlation 37
rides 37
modified 37
slope 37
lighter 37
opposition 37
illusions 37
contributions 37
1.2 37
metrics 36
wolves 36
adaptation 36
von 36
disappears 36
gratitude 36
hans 36
confusing 36
trans 36
arena 36
thermal 36
sketch 36
dvd 36
submitted 36
regenerate 36
outdoor 36
cation 36
heights 36
throat 36
expense 36
gy@@ 36
stereotypes 36
measurement 36
lhc 36
unseen 36
fertilizer 36
cuba 36
puberty 36
charter 36
chaotic 36
manufacturers 36
valued 36
fossils 36
gallon 36
liberia 36
replacement 36
confirmed 36
th. 36
balanced 36
fruits 36
protests 36
praying 36
76 36
end@@ 36
recognizes 36
stewart 36
quantities 36
somalia 36
tibet 36
yn@@ 36
dated 36
suitcase 36
projected 36
depths 36
attributes 36
glorious 36
beef 36
embodied 36
tured 36
irrational 36
settlement 36
1900 36
2.5 36
commands 36
painter 36
resilient 36
humankind 36
textbook 36
jeopardy 36
scarce 36
conditioning 36
odor 36
mysteries 36
2016 36
reproduction 36
campaigns 36
unified 36
denied 36
intervene 36
nonsense 36
sy@@ 36
wan@@ 36
mini 36
greeks 36
secondary 36
brain@@ 36
symmetries 36
habitable 36
biologically 36
ideals 36
annoying 36
sells 36
persons 36
disk 36
minor 36
checklist 36
georgia 36
chickens 36
unintended 36
varieties 36
strand 36
human@@ 36
wounded 36
mers 36
worn 36
las 36
eri@@ 36
ambulance 36
satisfied 36
variables 36
scanned 36
committee 36
kansas 36
michigan 36
subjective 36
presents 36
purchase 36
mos@@ 36
q 36
pul@@ 36
collaborator 36
galapagos 36
eye@@ 36
symbolic 36
seafood 36
reminder 36
packaging 36
sle@@ 36
kosovo 36
upright 36
dent 36
wo@@ 35
sensitivity 35
han 35
disconnect 35
preservation 35
graffiti 35
wives 35
boo@@ 35
tick 35
draws 35
reproductive 35
cues 35
jaws 35
lips 35
tors 35
fle@@ 35
frequent 35
sucks 35
ch. 35
societal 35
weighed 35
resolved 35
critic 35
eighty 35
acute 35
carnegie 35
cerebral 35
automated 35
complaining 35
ds. 35
financially 35
commonly 35
apparent 35
fra@@ 35
wood@@ 35
defines 35
incidentally 35
firms 35
zz@@ 35
bikes 35
cd 35
alliance 35
cop 35
flourish 35
ethic 35
wounds 35
ses. 35
circulation 35
jordan 35
culturally 35
be. 35
jersey 35
cognition 35
sudan 35
pigeon 35
aggregate 35
pee 35
oriented 35
lec@@ 35
stre@@ 35
penalty 35
mundane 35
issued 35
calculation 35
storyteller 35
champion 35
alert 35
harvesting 35
warfare 35
configuration 35
exercises 35
illnesses 35
galileo 35
manufacture 35
whit@@ 35
presentations 35
kings 35
magician 35
fun@@ 35
courts 35
persuade 35
diamonds 35
matching 35
givers 35
are@@ 35
complain 35
optimize 35
gaze 35
powerpoint 35
poorly 35
ss@@ 35
crashes 35
legally 35
disrupt 35
algebra 35
fees 35
cigarette 35
shepherd 35
roman 35
school@@ 35
tures 35
snakes 35
touches 35
pity 35
nar@@ 35
poses 35
malnutrition 35
routes 35
meg@@ 35
triple 35
illustrates 35
broccoli 35
preferred 35
crystal 35
angels 35
parameters 35
stein 35
urgent 35
calculating 35
michelangelo 35
bit@@ 35
playground 35
amsterdam 35
disgusting 35
ak@@ 35
tweets 35
refrigerator 35
gers 35
directed 35
explanations 35
executive 35
impaired 35
editing 35
choir 35
centered 35
reconstruct 35
sustained 35
everest 35
slowed 35
cocktail 35
thread 35
scaled 35
accent 35
dependence 35
brush 35
controversy 34
orleans 34
employ 34
ball@@ 34
thailand 34
abused 34
novelty 34
speci@@ 34
blocking 34
indicates 34
bruce 34
shout 34
shares 34
appreciated 34
boy@@ 34
bribe 34
lapse 34
transmitted 34
assigned 34
jacket 34
basket 34
grassroots 34
preserved 34
backed 34
needing 34
mammoth 34
portugal 34
chy 34
peaks 34
developmental 34
sue 34
compressed 34
ier 34
solo 34
fulfilling 34
fat@@ 34
guinea 34
wonders 34
breakthroughs 34
developers 34
marvelous 34
introducing 34
altered 34
voluntary 34
mexican 34
volcanic 34
+ 34
forty 34
1970 34
theirs 34
blast 34
breed 34
bert 34
dangers 34
chop 34
dun@@ 34
environmentally 34
partnerships 34
blend 34
evaluate 34
eco 34
h. 34
fashioned 34
1996 34
exploitation 34
imperative 34
jc 34
roosevelt 34
atmospheric 34
thesis 34
signing 34
bands 34
na 34
worship 34
ea@@ 34
ken@@ 34
strict 34
stumbled 34
pc 34
folds 34
democrats 34
routinely 34
volumes 34
bicycles 34
sk 34
torn 34
wiring 34
register 34
reporters 34
progressive 34
races 34
consistently 34
anesthesia 34
glaciers 34
pixels 34
impulse 34
invasion 34
taboo 34
oc@@ 34
doc 34
propaganda 34
implanted 34
ore 34
radar 34
dancer 34
jewelry 34
sulfide 34
cou@@ 34
lamb 34
matt 34
kepler 34
margins 34
leg@@ 34
arbitrary 34
node 34
oklahoma 34
releases 34
gri@@ 34
developments 34
files 34
posture 34
fled 34
surroundings 34
addicted 34
ease 34
prevalence 34
fame 34
exit 34
myths 34
embassy 34
equity 34
coincidence 34
astro@@ 34
athlete 34
singular 34
accompanied 34
slowing 34
tickets 34
gle 34
lan 34
transformations 34
lessness 34
oliver 34
icons 34
neanderthals 34
derived 34
receptor 34
chemist 34
beta 34
diagnose 34
mild 34
mill 34
expressing 34
leopard 34
extremism 34
fran@@ 34
bleeding 34
responsibilities 34
home. 34
shallow 34
vivid 34
devoted 34
primate 34
sidewalk 34
exploded 34
cleaned 34
rig 34
1.3 34
deny 34
mite 34
elders 33
green@@ 33
civilian 33
acted 33
bump 33
jaw 33
wer 33
less. 33
reasonably 33
contents 33
p.m. 33
rainfall 33
lea@@ 33
enzymes 33
forcing 33
grey 33
threaten 33
shar@@ 33
balloons 33
atheist 33
weekends 33
feminine 33
assault 33
satisfying 33
cooked 33
home@@ 33
vibrant 33
heck 33
fuzzy 33
exams 33
delicate 33
penicillin 33
avenue 33
question. 33
chapters 33
camel 33
pumps 33
relax 33
tops 33
accounting 33
van@@ 33
container 33
cheers 33
highways 33
attacking 33
relevance 33
tioned 33
mediterranean 33
vitamin 33
bananas 33
notions 33
stan@@ 33
duration 33
operator 33
bucket 33
spontaneous 33
magnet 33
lakes 33
pools 33
constrained 33
transaction 33
taller 33
marijuana 33
inject 33
neurological 33
del 33
gon@@ 33
300,000 33
mm 33
tac@@ 33
confusion 33
lenses 33
beep 33
fli@@ 33
wit@@ 33
blocked 33
an. 33
explicitly 33
reveals 33
tel 33
alter 33
nepal 33
orbiting 33
disposal 33
trek 33
passengers 33
apologize 33
johnny 33
gosh 33
degraded 33
commodities 33
warren 33
hawking 33
infinity 33
hooked 33
commissioned 33
distorted 33
selective 33
banana 33
stamp 33
lation 33
articulate 33
diego 33
ninety 33
protocol 33
erase 33
fr@@ 33
cked 33
bing 33
mathematically 33
esteem 33
genomics 33
tremendously 33
guest 33
endeavor 33
ct@@ 33
_ 33
ali 33
kilograms 33
governmental 33
wel@@ 33
scholar 33
reporter 33
cathedral 33
ata 33
ranging 33
statements 33
firsthand 33
appealing 33
schedule 33
futures 33
cate 33
lic 33
redefine 33
bonus 33
powder 33
crushed 33
with@@ 33
secre@@ 33
disappearing 33
toss 33
guardian 33
fur@@ 33
speeches 33
unpredictable 33
regrets 33
christ 33
labels 33
exclusive 33
visceral 33
coma 33
ero@@ 33
ousness 33
libraries 33
wished 33
bad@@ 33
cular 32
intend 32
sums 32
sang 32
als. 32
dragonflies 32
jay 32
thu@@ 32
emma 32
chin@@ 32
elbow 32
wasting 32
needles 32
wonderfully 32
cardiovascular 32
backup 32
mit@@ 32
starbucks 32
liberals 32
northwest 32
beats 32
food. 32
northeast 32
cho@@ 32
representatives 32
fal@@ 32
misery 32
cafe 32
bankers 32
insi@@ 32
difficulties 32
protocell 32
mol@@ 32
tab@@ 32
spike 32
off. 32
40s 32
about. 32
unemployment 32
amateur 32
accused 32
feminism 32
superior 32
ripped 32
conceptual 32
fox 32
halls 32
juvenile 32
petition 32
prospect 32
tastes 32
multiverse 32
teens 32
joyful 32
bc 32
mayors 32
shel@@ 32
medi@@ 32
400,000 32
negotiation 32
execution 32
heated 32
nerd 32
guaranteed 32
scenarios 32
gh 32
sands 32
sha 32
contexts 32
neuroscientists 32
expose 32
bandwidth 32
1997 32
ladder 32
dalai 32
giussani 32
winners 32
equilibrium 32
shuttle 32
1989 32
lers 32
prioritize 32
swedish 32
alistic 32
hug 32
spouse 32
rainforests 32
collar 32
p. 32
phrases 32
cried 32
criticism 32
crawl 32
violin 32
negotiations 32
lawn 32
biased 32
citizenship 32
enlightenment 32
banned 32
spirits 32
astronauts 32
spaghetti 32
muhammad 32
lasted 32
coined 32
mou@@ 32
octopus 32
smo@@ 32
helpless 32
accelerated 32
intrigued 32
carl 32
sketches 32
gor@@ 32
gras 32
see. 32
boyfriend 32
reuse 32
unnecessary 32
hotels 32
sky@@ 32
arrows 32
butt 32
grim 32
alright 32
abandon 32
ama@@ 32
ptsd 32
trail 32
certainty 32
fonio 32
southeast 32
54 32
trustworthy 32
pennsylvania 32
freak 32
zi@@ 32
neighboring 32
herd 32
backpack 32
blu@@ 32
hammer 32
laundry 32
explorer 32
maintaining 32
auditorium 32
tations 32
hyper@@ 32
titanic 32
doubling 32
cks 32
poured 32
arrest 32
observer 32
denmark 32
tooth 32
coordinate 32
bab@@ 32
trunk 32
determination 32
employer 32
stakes 32
restricted 32
flexibility 32
slum 32
mart 32
clips 32
contradiction 32
louder 32
ethanol 32
digits 32
arizona 32
synthesis 32
resonance 32
accumulate 32
learns 32
dged 32
poets 32
circuitry 31
swa@@ 31
parasites 31
shirts 31
watches 31
queens 31
undergraduate 31
imaginary 31
searches 31
obtained 31
1991 31
lewis 31
arch@@ 31
rendering 31
franklin 31
hurts 31
ballet 31
une@@ 31
placing 31
temporal 31
vancouver 31
ure 31
gait 31
í@@ 31
loneliness 31
kal@@ 31
refined 31
measurable 31
programmable 31
ances 31
tolerant 31
roy 31
ture 31
gl@@ 31
railway 31
som@@ 31
impressed 31
struggles 31
ringing 31
epilepsy 31
hiring 31
jefferson 31
breakdown 31
skies 31
pap@@ 31
sel 31
bj 31
pun@@ 31
1.@@ 31
sco@@ 31
scalable 31
graduates 31
retired 31
reacting 31
nurture 31
secretly 31
princeton 31
eradication 31
tracked 31
rabbi 31
entity 31
aspirations 31
histories 31
vents 31
disconnected 31
suburban 31
titles 31
galleries 31
faculty 31
feared 31
myriad 31
tolerate 31
severely 31
praise 31
disruption 31
augmented 31
en. 31
tuberculosis 31
ruins 31
prefrontal 31
hairs 31
impose 31
sequenced 31
regi@@ 31
triggered 31
fictional 31
ple@@ 31
transferred 31
sav@@ 31
polls 31
stunt 31
colorado 31
projections 31
brad 31
strangely 31
noble 31
barrels 31
minimal 31
oregon 31
slu@@ 31
crab 31
crosses 31
comparable 31
climbers 31
0. 31
lazy 31
transforms 31
truc@@ 31
ited 31
hear@@ 31
max 31
pie@@ 31
dick 31
emily 31
exquisite 31
bility 31
benign 31
sewage 31
hand. 31
crises 31
ingenuity 31
tourism 31
potatoes 31
att@@ 31
faint 31
influences 31
delta 31
simon 31
ax@@ 31
dd@@ 31
revealing 31
differ 31
thirdly 31
producer 31
kenyan 31
scotland 31
watt 31
dest 31
employed 31
responsive 31
weakness 31
infinitely 31
tionist 31
milo 31
dis 31
forecast 31
diamond 31
textile 31
prototyping 31
water. 31
iting 31
claimed 31
ion 31
stuff. 31
glory 31
bosnia 31
celebrating 31
1975 31
ram 31
quantity 31
ant@@ 31
connectome 31
cigarettes 31
seasons 31
ar. 31
rabbit 31
closet 31
meaningless 31
mba 30
sealed 30
riots 30
civilians 30
isaac 30
saint 30
bluefin 30
ere 30
isis 30
ctions 30
taxi 30
arti@@ 30
fairy 30
heavens 30
communal 30
teszler 30
costume 30
payments 30
guests 30
eli@@ 30
yed 30
0 30
spheres 30
140 30
acumen 30
treasure 30
candle 30
organizational 30
literary 30
mustache 30
communist 30
babbage 30
vastly 30
insecure 30
nuclei 30
rod 30
beautiful. 30
nursing 30
statue 30
beaches 30
ide@@ 30
prejudice 30
limestone 30
interviewer 30
crowds 30
utter 30
responds 30
wilderness 30
horrific 30
cel@@ 30
250,000 30
iteration 30
detectors 30
attraction 30
standpoint 30
trillions 30
urbanization 30
symptom 30
sen 30
tortured 30
superhero 30
jerry 30
tattoo 30
est@@ 30
mag@@ 30
governor 30
wilson 30
barack 30
ga 30
auto 30
drowning 30
owns 30
medieval 30
hs 30
centric 30
unemployed 30
revenge 30
sty@@ 30
80,000 30
fort 30
conspiracy 30
water@@ 30
monsoon 30
initiatives 30
sapiens 30
germans 30
ambiguity 30
bench 30
rabbits 30
magnets 30
360 30
inventors 30
limitation 30
ji@@ 30
requirement 30
hub 30
ank 30
idiot 30
arise 30
cultivate 30
numb 30
melody 30
streaming 30
contaminated 30
advantages 30
quantitative 30
goliath 30
settings 30
pearl 30
suggestions 30
gru@@ 30
everything. 30
trusting 30
basking 30
cher 30
wk 30
lithium 30
absurd 30
ining 30
miracles 30
arrangement 30
freeze 30
mythology 30
poli@@ 30
makeup 30
individu@@ 30
sensible 30
appropriately 30
oral 30
equ@@ 30
side@@ 30
lobe 30
46 30
ep@@ 30
58 30
bangalore 30
reduces 30
pp@@ 30
induced 30
billy 30
different. 30
é 30
unity 30
lon@@ 30
axes 30
underestimate 30
geological 30
power@@ 30
cating 30
beginnings 30
fulfill 30
tle 30
basin 30
500,000 30
quotes 30
gn@@ 30
slogan 30
arduino 30
valid 30
edited 30
animated 30
lou@@ 30
deserts 30
kiribati 30
punish 30
indoor 30
maximize 30
data. 30
souls 30
avoiding 30
extensive 30
secrecy 30
clapping 30
pilots 30
wow. 30
happiest 30
inviting 30
executed 30
temptation 30
kit@@ 30
1945 30
trump 30
motions 30
devastated 30
hint 30
lastly 30
cinema 30
catastrophe 30
vit@@ 30
arc 30
worthwhile 30
forbid 30
epiphany 30
lings 29
eradicate 29
mentors 29
surfing 29
troubled 29
instability 29
specialists 29
occupation 29
bounce 29
integrating 29
realizes 29
place. 29
furthermore 29
blink 29
francis 29
fraud 29
orgasm 29
jill 29
hin@@ 29
sign@@ 29
vin@@ 29
fitting 29
tunnels 29
ambassador 29
cane 29
dra@@ 29
bot 29
but@@ 29
led. 29
investigating 29
distracted 29
colleges 29
boson 29
namibia 29
grounded 29
carers 29
stripped 29
cates 29
prizes 29
admitted 29
happen. 29
ris@@ 29
continually 29
jean 29
ambi@@ 29
problematic 29
donation 29
approval 29
distress 29
sou@@ 29
tunisia 29
paste 29
blade 29
menu 29
filmmaker 29
arians 29
biotech 29
fetus 29
diver 29
clap 29
instincts 29
marriages 29
stated 29
remembers 29
condom 29
ser 29
doaa 29
pillars 29
450 29
steer 29
bearing 29
norwegian 29
starvation 29
hotter 29
permanently 29
vibrating 29
centimeters 29
gran@@ 29
ox@@ 29
preventable 29
focuses 29
assess 29
activism 29
alo@@ 29
calculator 29
sunshine 29
perceptual 29
genuinely 29
capturing 29
adi@@ 29
blin@@ 29
fills 29
summary 29
clams 29
mentality 29
province 29
blogging 29
hippocampus 29
educators 29
gener@@ 29
retail 29
creators 29
ese 29
biotechnology 29
charging 29
tedtalk 29
recycle 29
requirements 29
amyloid 29
ign@@ 29
ph 29
canal 29
polarization 29
vegetation 29
hunters 29
literal 29
god@@ 29
ideological 29
r. 29
simulated 29
scope 29
optimal 29
squared 29
allen 29
man. 29
intel 29
dragged 29
uncertain 29
leaning 29
comprehensive 29
mammography 29
dock 29
gently 29
daylight 29
southwest 29
cal 29
attribute 29
tails 29
immigrant 29
ry@@ 29
assign 29
chord 29
lasts 29
combinations 29
databases 29
adversity 29
preferences 29
programmer 29
verge 29
unlock 29
desp@@ 29
employers 29
levers 29
grabs 29
theft 29
who@@ 29
openly 29
acceleration 29
interviewing 29
carved 29
rank 29
10th 29
announce 29
thumbs 29
57 29
invaded 29
crashed 29
tennis 29
outrageous 29
declined 29
tropics 29
83 29
philip 29
unite 29
93 29
bitter 29
bust 29
calcium 29
reinventing 29
bly 29
snow@@ 29
scholarship 29
tasmanian 29
exhausted 29
monthly 29
sputnik 29
zip 29
cts 29
executives 29
toronto 29
ebay 29
receiver 29
lifting 29
rebuilding 29
inmates 29
crashing 29
samuel 29
glob@@ 29
cking 29
demographics 29
emergent 29
agile 29
unpleasant 29
contracts 29
sno@@ 29
conducting 29
itation 29
arteries 29
pops 29
cracked 29
monitored 29
thro@@ 29
stressful 29
christianity 29
cabinet 29
bac@@ 29
lining 29
distinctive 29
rip 29
natasha 29
crawling 29
180 29
thin@@ 29
declining 29
murdered 29
genesis 28
uni@@ 28
ira 28
himalayas 28
ose 28
abortion 28
incremental 28
fil@@ 28
awards 28
fel@@ 28
resemble 28
counterintuitive 28
meantime 28
paulo 28
rectangle 28
cooler 28
peek 28
improvisation 28
inde@@ 28
madness 28
amino 28
charities 28
correlated 28
determining 28
intrinsic 28
ura 28
cent 28
cer@@ 28
overlap 28
cting 28
curator 28
ssi@@ 28
manifest 28
nonlethal 28
leds 28
fingertips 28
inefficient 28
shattered 28
poles 28
abusive 28
packing 28
dation 28
varied 28
rotating 28
.org 28
prevented 28
thy 28
unfamiliar 28
oftentimes 28
bulbs 28
towel 28
donations 28
susan 28
concluded 28
ape 28
insisted 28
enough. 28
ah@@ 28
adventures 28
arriving 28
prone 28
fundraising 28
sync 28
smartest 28
elevated 28
bo 28
relaxed 28
wander 28
restrictions 28
classified 28
del@@ 28
requests 28
ash 28
elder 28
room. 28
ef@@ 28
abo@@ 28
chunk 28
envy 28
125 28
prayers 28
hygiene 28
metropolitan 28
bury 28
olive 28
tile 28
certified 28
newborn 28
functionality 28
respectful 28
kyoto 28
drank 28
beloved 28
encounters 28
done. 28
hats 28
mw 28
ene 28
fade 28
epi@@ 28
censorship 28
explorers 28
dining 28
gal@@ 28
cybercriminals 28
conception 28
guided 28
paradise 28
low@@ 28
fee 28
memorize 28
tedsters 28
ate@@ 28
volcano 28
rd 28
hypothetical 28
pads 28
indication 28
irrigation 28
sb 28
inter 28
diary 28
enzyme 28
transactions 28
pedestrians 28
manuscript 28
bles 28
sit@@ 28
caltech 28
int 28
triumph 28
adequate 28
mounted 28
telephones 28
vul@@ 28
ruled 28
drift 28
bow@@ 28
yr 28
reads 28
tered 28
astronomical 28
humane 28
camp@@ 28
globalized 28
sounding 28
dos 28
meanings 28
manages 28
mat 28
shield 28
keith 28
mosquitos 28
grip 28
wind@@ 28
readily 28
trait 28
assessment 28
tourist 28
negotiating 28
dylan 28
hung 28
attempted 28
workshops 28
beethoven 28
corridors 28
irrelevant 28
corresponding 28
journeys 28
flown 28
pros@@ 28
ok@@ 28
intentional 28
pulses 28
87 28
auto@@ 28
charts 28
testosterone 28
bonobos 28
margaret 28
94 28
awa@@ 28
educating 28
pneumonia 28
structured 28
pollutants 28
improves 28
ug@@ 28
imposed 28
recreate 28
pas@@ 28
scare 28
oring 28
saves 28
ures 28
mercy 28
switches 28
vegas 28
cairo 28
eliminated 28
massachusetts 28
balancing 28
transcend 28
skype 28
hallway 28
taiwan 28
austria 28
popped 28
thriving 28
ated. 28
nit@@ 28
offensive 28
currents 28
retire 28
new@@ 28
berg 28
nectar 28
person@@ 28
manufacturer 28
nothing. 28
11th 28
% 28
pesticides 28
ened 28
exceptional 28
vent 28
connecticut 28
availability 28
um@@ 28
clicking 28
rom@@ 28
pathogens 28
blob 28
stocks 28
hair@@ 28
hid 28
whoa 28
hos@@ 28
dealt 28
oned 28
historian 28
broadly 28
ei@@ 27
burial 27
universally 27
disturbed 27
old. 27
treadmill 27
sing@@ 27
net@@ 27
collider 27
domin@@ 27
sorry. 27
band@@ 27
replied 27
compass 27
suburbs 27
pressed 27
spine 27
uploaded 27
unimaginable 27
cont@@ 27
animations 27
sovereign 27
catalyst 27
divergence 27
attempting 27
suspected 27
shrinking 27
founders 27
mantra 27
costly 27
questioned 27
ally. 27
battles 27
swap 27
aquatic 27
oma 27
presumably 27
fighters 27
prevents 27
holistic 27
arranged 27
oun@@ 27
katrina 27
timber 27
stat@@ 27
guidelines 27
prints 27
advocacy 27
postcards 27
burns 27
envision 27
meta@@ 27
fit@@ 27
lever 27
insist 27
ninth 27
aring 27
castle 27
porn 27
away. 27
departments 27
folk 27
inhabit 27
lego 27
road@@ 27
erotic 27
acy 27
ao 27
tapirs 27
wipe 27
antibodies 27
ents. 27
honeybees 27
tion@@ 27
obscure 27
walker 27
ministers 27
spaceship 27
du 27
trick@@ 27
coherent 27
polite 27
supposedly 27
promotion 27
angel 27
rear 27
underway 27
ners 27
conscience 27
fool 27
deli@@ 27
lifetimes 27
ll@@ 27
escaped 27
achievements 27
keen 27
ber 27
kidneys 27
ney 27
academics 27
bombsight 27
synthesize 27
ucla 27
gangs 27
acre 27
gated 27
hil@@ 27
sion. 27
fantastic. 27
tizing 27
combining 27
reflecting 27
propulsion 27
ther@@ 27
accommodate 27
substitute 27
door@@ 27
arose 27
racist 27
tel@@ 27
wages 27
throws 27
pr 27
nurturing 27
embarrassment 27
fishery 27
diplomat 27
desertification 27
exposing 27
radius 27
photographers 27
memorable 27
edinburgh 27
uncover 27
volcanoes 27
forgiveness 27
yields 27
nanotechnology 27
veil 27
deliberate 27
wa 27
athletic 27
illustration 27
wax 27
hears 27
obligation 27
neurogenesis 27
removing 27
cameron 27
kilos 27
booth 27
pain@@ 27
sca@@ 27
handy 27
king. 27
vinci 27
leaks 27
improvise 27
tales 27
voyage 27
efficacy 27
emailed 27
vel@@ 27
macro 27
pioneer 27
repertoire 27
framed 27
contacted 27
afterward 27
min 27
mia 27
curtain 27
bulk 27
4. 27
straw 27
hopeless 27
continuity 27
addicts 27
53 27
geeks 27
bir@@ 27
cleared 27
kable 27
inflation 27
characterized 27
photographing 27
71 27
moses 27
goats 27
gamma 27
mommy 27
remix 27
oper@@ 27
bag@@ 27
82 27
sian 27
epidemics 27
miami 27
unsustainable 27
passport 27
absorbed 27
flooding 27
equator 27
falcon 27
kle 27
netflix 27
likewise 27
pic@@ 27
bent 27
valve 27
aesthetics 27
hur@@ 27
implication 27
unfold 27
avian 27
tives 27
iraqi 27
hon@@ 27
inventing 27
jac@@ 27
translates 27
pristine 27
tim@@ 27
hubble 27
sively 27
stereo 27
switching 27
lied 27
slo@@ 27
inputs 27
critics 27
occupied 27
norman 27
geometric 27
heartbreak 27
astronaut 27
burger 27
humanities 27
attachment 27
palestine 27
lover 27
kite 27
bye 27
adjacent 27
freeway 27
drinks 27
swallowed 27
conductor 27
moma 27
hacked 27
stop. 27
protons 27
needless 27
ric 27
rewarded 26
fir 26
brea@@ 26
ham@@ 26
nas@@ 26
nic@@ 26
flipped 26
ideally 26
anthropologists 26
periodic 26
distraction 26
uranium 26
important. 26
gallons 26
petals 26
1993 26
detecting 26
scripts 26
similarities 26
twelve 26
poop 26
inspires 26
revelation 26
fatty 26
investigative 26
gli@@ 26
ome 26
preserving 26
harlem 26
eliminating 26
threads 26
evaluation 26
differentiate 26
ini@@ 26
composer 26
charcoal 26
recipes 26
placebo 26
ces@@ 26
lump 26
prof@@ 26
veronica 26
nike 26
duke 26
posts 26
stabilize 26
adulthood 26
humiliation 26
hosts 26
siberia 26
rented 26
ble. 26
conclusions 26
dental 26
proves 26
reclaim 26
ness. 26
photons 26
ack 26
au 26
geo@@ 26
ushahidi 26
armstrong 26
blows 26
upload 26
reconstruction 26
experimentation 26
rob@@ 26
flock 26
3.@@ 26
satisfy 26
assi@@ 26
oakland 26
neil 26
performers 26
stin@@ 26
woo 26
poorer 26
packs 26
missile 26
flickr 26
sole 26
prominent 26
drowned 26
rhetoric 26
tionally 26
wallet 26
filed 26
tus 26
turtles 26
tedx 26
ku 26
ological 26
terri@@ 26
mobilize 26
airports 26
indicators 26
cubic 26
oops 26
rendered 26
mr 26
ena 26
too. 26
announcement 26
ards 26
susceptible 26
2.0 26
carrot 26
bending 26
standardized 26
around. 26
auditory 26
ai@@ 26
itated 26
erectus 26
resulted 26
92 26
stole 26
worries 26
industrialized 26
tm 26
glowing 26
resulting 26
depressing 26
mills 26
swee@@ 26
larvae 26
rightly 26
officially 26
constructive 26
wal 26
governed 26
respiratory 26
deprivation 26
agnostic 26
kat@@ 26
khan 26
accumulated 26
anticipated 26
behaving 26
gecko 26
cran@@ 26
collaborating 26
ivory 26
eg@@ 26
ignoring 26
bono 26
scuba 26
warehouse 26
references 26
bus@@ 26
personnel 26
ence. 26
ruin 26
martian 26
sac@@ 26
49 26
friendships 26
1968 26
manifestation 26
guatemala 26
submarine 26
seasonal 26
appearing 26
cellphone 26
populated 26
bricks 26
coupled 26
extremes 26
shade 26
colombia 26
continuum 26
incomes 26
2.@@ 26
sli@@ 26
ary. 26
echo 26
export 26
camels 26
unaware 26
veins 26
seventy 26
roger 26
teen 26
emission 26
broadcasting 26
surprises 26
blueprint 26
apparatus 26
establishment 26
elites 26
humidity 26
steering 26
fellows 26
steak 26
ils 26
receives 26
disparate 26
ec@@ 26
driverless 26
grams 26
addresses 26
salad 26
cruise 26
strokes 26
aspiration 26
ulate 26
primal 26
schooling 26
darwinian 26
ty. 26
abnormal 26
encryption 26
stacked 26
hamburger 26
obse@@ 26
snap 26
strongest 26
contacts 26
lure 26
acknowledged 26
tation 26
atmospheres 26
sessions 26
scal@@ 26
longing 26
appliances 26
unstable 26
anne 26
crank 26
log@@ 26
dges 26
operational 26
sued 26
penetrate 26
leak 26
expands 26
sustaining 25
toxins 25
triangles 25
crater 25
impacted 25
drilling 25
simplistic 25
eling 25
preference 25
monopoly 25
simplify 25
shortage 25
atic 25
feather 25
acidification 25
searched 25
peel 25
pittsburgh 25
recruit 25
thoughtful 25
system. 25
dol@@ 25
classmates 25
arithmetic 25
rift 25
mes 25
body. 25
ago. 25
microwave 25
6.@@ 25
nazi 25
radioactive 25
incarceration 25
vertically 25
stic 25
flame 25
inv@@ 25
cue 25
sic@@ 25
mono@@ 25
providers 25
popping 25
rushed 25
dresses 25
nail 25
aha 25
red@@ 25
erosion 25
representations 25
commitments 25
relies 25
foot@@ 25
bullets 25
lisa 25
serotonin 25
breasts 25
improbable 25
sterile 25
wolfram 25
extraction 25
imaginations 25
intensely 25
weekly 25
ologists 25
pac@@ 25
outward 25
regulating 25
notebook 25
nancy 25
hobby 25
intangible 25
house@@ 25
cp 25
physiological 25
dm 25
packaged 25
ow@@ 25
dumped 25
1973 25
delighted 25
rebel 25
heels 25
randomness 25
fg 25
trailer 25
like. 25
kibera 25
brakes 25
qatar 25
ancestry 25
orbital 25
liking 25
mming 25
fertility 25
cool. 25
delete 25
accidentally 25
apped 25
mented 25
tilt 25
jo 25
drums 25
art. 25
enlightened 25
lap@@ 25
omic 25
extracted 25
commentary 25
crow 25
nests 25
bothered 25
arises 25
der. 25
thor@@ 25
revelations 25
aquarium 25
backward 25
li 25
stock@@ 25
simplified 25
emphasis 25
floods 25
buys 25
fungus 25
unhealthy 25
exclusively 25
ine. 25
richness 25
runner 25
si 25
internationally 25
bumps 25
tas@@ 25
priest 25
accidental 25
handsome 25
marginalized 25
eager 25
sydney 25
pale 25
defending 25
listener 25
irish 25
rubble 25
9,000 25
graders 25
oxide 25
impe@@ 25
scarcity 25
dominance 25
followers 25
complained 25
urine 25
messaging 25
psychopath 25
compatible 25
wreck 25
alities 25
capacities 25
kim 25
lows 25
mb 25
dude 25
ort 25
dice 25
confirm 25
colonial 25
deer 25
portable 25
read@@ 25
lawrence 25
dances 25
discourse 25
geese 25
gateway 25
alia 25
imaginative 25
serv@@ 25
ozone 25
rand 25
rang 25
cartoonist 25
hitler 25
ter. 25
cted 25
blessing 25
aces 25
ala 25
resort 25
77 25
competent 25
junior 25
edi 25
boil 25
inadequate 25
2,500 25
mates 25
bi 25
dove 25
turtle 25
job. 25
enceladus 25
tunneling 25
europa 25
scottish 25
handling 25
1,200 25
aerial 25
vibrations 25
ets 25
lah 25
bru@@ 25
toast 25
nie 25
poetic 25
deadline 25
syn@@ 25
flaws 25
heartbeat 25
mist 25
mega 25
linux 25
fleet 25
poland 25
innate 25
caregivers 25
devised 25
recruited 25
anthropology 25
carve 25
bolt 25
dominate 25
arche@@ 25
mos 25
manufactured 25
depended 25
donate 25
correspond 25
ipad 25
sher@@ 25
dallas 25
bos@@ 25
heel 25
respects 25
digest 25
rovers 25
injected 25
pope 25
cir@@ 25
wat@@ 25
cnn 25
reply 25
sses 25
cally 25
nba 25
protects 25
speeding 25
headache 25
matic 25
orphanage 25
litter 25
doomed 25
frugal 25
plato 24
inging 24
meadow 24
episodes 24
sunny 24
flooded 24
off@@ 24
jam 24
darpa 24
lawsuit 24
tic. 24
petri 24
render 24
cereal 24
degradation 24
absolutely. 24
dictator 24
euros 24
learner 24
dune 24
oecd 24
mites 24
predatory 24
americas 24
velocity 24
settlements 24
injection 24
smiles 24
unfinished 24
supernova 24
propelled 24
ment@@ 24
crea@@ 24
moisture 24
conce@@ 24
viewers 24
tennessee 24
migraine 24
subsequently 24
perfection 24
glu@@ 24
sandy 24
conceive 24
cassini 24
thoroughly 24
agnes 24
borrowed 24
mum 24
surf 24
nicole 24
polish 24
thers 24
womb 24
flap 24
,@@ 24
aps 24
agrees 24
pest 24
spades 24
venice 24
ven 24
definitions 24
potter 24
atheists 24
ach 24
dressing 24
indoors 24
archives 24
merge 24
cy 24
residential 24
tou@@ 24
compli@@ 24
damaging 24
rail 24
encoded 24
explicit 24
introverts 24
thri@@ 24
tackling 24
pushes 24
polar@@ 24
descriptions 24
gi 24
wizard 24
enslaved 24
strapped 24
spelling 24
ya@@ 24
parker 24
reactive 24
extends 24
hg 24
reagan 24
sul@@ 24
brilliance 24
opt 24
powerfully 24
psychotic 24
spills 24
bmw 24
refers 24
onset 24
freedoms 24
notation 24
beans 24
maldives 24
strive 24
retain 24
insert 24
ess 24
partially 24
minate 24
shook 24
effectiveness 24
visionary 24
bladder 24
containing 24
coordinated 24
intrinsically 24
senator 24
om 24
mutually 24
strictly 24
te. 24
4.@@ 24
debates 24
bronze 24
look. 24
diagnostics 24
unfolding 24
upwards 24
intentionally 24
cult 24
,500 24
rl 24
incorporate 24
sebastian 24
periphery 24
invade 24
rain@@ 24
shores 24
liberation 24
outrage 24
tting 24
legged 24
tr 24
milit@@ 24
monsters 24
kelly 24
enjoyable 24
solidarity 24
biop@@ 24
mandate 24
ghost 24
browsing 24
leisure 24
warmth 24
tized 24
ola 24
lacking 24
shiny 24
uber 24
policing 24
passionately 24
warn 24
advancing 24
bouncing 24
00 24
ung 24
excellence 24
ians 24
mas 24
deposit 24
or. 24
amateurs 24
grit 24
pot@@ 24
foreground 24
antly 24
superheroes 24
sn@@ 24
replicating 24
neuroscientist 24
any@@ 24
crush 24
catalog 24
developer 24
sympathy 24
night. 24
mechanically 24
pon@@ 24
favelas 24
disse@@ 24
maternal 24
89 24
intuitively 24
blaming 24
coaches 24
glo@@ 24
clicks 24
marvel 24
slices 24
battlefield 24
animate 24
understandable 24
195@@ 24
compelled 24
vague 24
ith 24
influential 24
partial 24
weaker 24
centralized 24
salaries 24
monument 24
extending 24
bread@@ 24
vultures 24
sighted 24
photosynthesis 24
involvement 24
modular 24
electri@@ 24
disclosure 24
helicopters 24
beard 24
reinforce 24
regenerative 24
similarity 24
better. 24
convenience 24
tap@@ 24
rigorous 24
160 24
liberating 24
technologists 24
killers 24
traded 24
motivations 24
thed 24
miraculous 24
affection 24
ans. 24
learners 24
pping 24
finland 24
virtues 24
vicious 24
other. 24
reconciliation 24
stunts 24
storytellers 24
stor@@ 24
chemists 24
change. 24
map@@ 24
stal@@ 24
containers 24
itate 24
tis 24
concentrations 24
everglades 24
bark 24
ark 24
lengths 24
confession 24
husbands 24
discomfort 24
bbc 24
welcomed 23
fractal 23
rica 23
lgbt 23
participatory 23
academia 23
billboard 23
endor@@ 23
mbo 23
complications 23
explosions 23
fro@@ 23
fueled 23
ong 23
europeans 23
alarming 23
interrupt 23
generator 23
puppy 23
ful. 23
15th 23
art@@ 23
turkish 23
fai@@ 23
ohio 23
guessing 23
customs 23
roommate 23
fuse 23
usable 23
artificially 23
automobiles 23
chin 23
enriched 23
cheering 23
pretending 23
boils 23
shortcut 23
compact 23
instinctively 23
bloodstream 23
julian 23
controller 23
void 23
loyalty 23
immensely 23
palace 23
wears 23
motto 23
confrontation 23
asperger 23
anticipation 23
lava 23
visits 23
specialize 23
repeating 23
portland 23
flourishing 23
easter 23
restoration 23
compose 23
decentralized 23
pakistani 23
welcoming 23
feathers 23
i.q. 23
imf 23
tougher 23
edible 23
cease 23
sucked 23
translating 23
terrestrial 23
loops 23
chambers 23
startling 23
fluctuations 23
whilst 23
identification 23
jon 23
fearful 23
lightweight 23
execute 23
pirate 23
collections 23
solitary 23
tasted 23
poo 23
manageable 23
evolves 23
spock 23
judged 23
historians 23
disbelief 23
specimens 23
systemic 23
churches 23
dam@@ 23
cod 23
some@@ 23
dispersed 23
hadron 23
antenna 23
bombed 23
timeline 23
overlooked 23
evan 23
eradicated 23
sulfur 23
neo 23
murray 23
bioluminescent 23
ston 23
waterfall 23
regarded 23
mineral 23
tended 23
rex 23
bleed 23
crabs 23
ington 23
passively 23
simple. 23
dunes 23
1985 23
clinicians 23
dodo 23
aming 23
inexpensive 23
icy 23
simulations 23
commercials 23
philippines 23
accumulation 23
districts 23
divorced 23
variability 23
modes 23
commandments 23
enduring 23
masks 23
proposing 23
arguably 23
percent. 23
basics 23
ater 23
school. 23
substantially 23
easy. 23
incredible. 23
ignorant 23
psychiatrist 23
internship 23
xi@@ 23
itating 23
thou 23
70,000 23
meta 23
mini@@ 23
dos@@ 23
flames 23
quad 23
river@@ 23
linguistic 23
sri 23
bioluminescence 23
modify 23
occasions 23
resi@@ 23
clitoris 23
zi 23
pornography 23
hudson 23
skirt 23
encrypted 23
children. 23
sensi@@ 23
tunas 23
mao 23
mermaid 23
collapses 23
germs 23
izes 23
workshop 23
lightbulbs 23
ast@@ 23
downstairs 23
type@@ 23
8.@@ 23
atro@@ 23
excuses 23
automotive 23
39 23
constructing 23
pollinators 23
swallow 23
pepper 23
confuse 23
cubicle 23
conquer 23
berry 23
63 23
67 23
champions 23
semester 23
drifted 23
artery 23
actu@@ 23
performer 23
84 23
pedal 23
kan@@ 23
zipcar 23
hers 23
91 23
whip 23
transistors 23
triggers 23
demanded 23
williams 23
proving 23
rainwater 23
digitize 23
regimes 23
bloggers 23
grandmothers 23
oyster 23
giants 23
coun@@ 23
forgetting 23
reconcile 23
certificate 23
have. 23
predicts 23
analytical 23
mode@@ 23
superpower 23
refine 23
nuanced 23
testimony 23
creepy 23
forth. 23
performances 23
walter 23
prescribe 23
attending 23
tech@@ 23
heart@@ 23
1,100 23
belonged 23
footprints 23
dog@@ 23
storycorps 23
urgency 23
treaties 23
nevada 23
targeting 23
bites 23
rev@@ 23
borrowing 23
deca@@ 23
marx 23
railroad 23
abu 23
tribute 23
tattoos 23
hallucin@@ 23
pati@@ 23
conve@@ 23
dc 23
mid- 23
puppet 23
novels 23
prevalent 23
.com. 23
face. 23
casting 23
tia 23
banker 23
dye 23
skeletons 23
styles 23
stimulus 23
circumstance 23
scroll 23
tist 23
dementia 23
immortality 23
rab@@ 23
neurologist 22
allah 22
dream@@ 22
yoga 22
waving 22
attendance 22
gol@@ 22
cke@@ 22
seize 22
lessly 22
ore@@ 22
lesters 22
fragmented 22
chad 22
fifteen 22
rode 22
two. 22
produc@@ 22
immortal 22
flush 22
concer@@ 22
arch 22
cour@@ 22
freshwater 22
josh 22
guessed 22
gum 22
import 22
perpetrators 22
inquiry 22
verse 22
versa 22
sixty 22
conviction 22
technicians 22
tragically 22
desalination 22
gent 22
charming 22
intuitions 22
separating 22
navi@@ 22
widow 22
strains 22
hic@@ 22
az@@ 22
maria 22
pessimistic 22
yer 22
sweating 22
helix 22
geo 22
sights 22
powerless 22
hard@@ 22
sea@@ 22
strips 22
valleys 22
epic 22
time@@ 22
che 22
clarify 22
anthropologist 22
mimics 22
tense 22
arrangements 22
builder 22
socks 22
gratification 22
beck 22
forehead 22
dered 22
parked 22
tensions 22
forage 22
slaughter 22
immunity 22
missouri 22
andy 22
tiniest 22
settling 22
sidewalks 22
dev@@ 22
geographical 22
mir@@ 22
sum@@ 22
methodology 22
chers 22
beekeepers 22
claws 22
pioneers 22
fascination 22
degrade 22
boreal 22
66 22
extroverts 22
neanderthal 22
drifting 22
diffusion 22
unequal 22
formats 22
bl 22
bp 22
coded 22
len 22
ctors 22
crafted 22
russell 22
bald 22
stop@@ 22
con 22
hebrew 22
1976 22
mola 22
thinker 22
scaffold 22
concerts 22
ek 22
synapse 22
coworkers 22
referring 22
f. 22
sweeping 22
overweight 22
guy. 22
koreans 22
modeled 22
mississippi 22
adolescents 22
springs 22
keeper 22
transfers 22
deceased 22
inhabitants 22
victorian 22
spar@@ 22
ji 22
pains 22
happens. 22
swamp 22
demonstrations 22
cured 22
mahatma 22
1986 22
savanna 22
casualties 22
onic 22
treats 22
swept 22
nut 22
ments. 22
bhutan 22
ane 22
oz 22
ovarian 22
discrete 22
movember 22
asphalt 22
pe 22
develops 22
suffers 22
germ 22
arian 22
cohen 22
= 22
liber@@ 22
exp@@ 22
typed 22
slate 22
ro 22
wastewater 22
ann@@ 22
whi@@ 22
jury 22
stuffed 22
res. 22
nan@@ 22
survives 22
risen 22
endlessly 22
resting 22
uv 22
ue 22
shortest 22
exhilarating 22
brink 22
tagging 22
horn 22
lac@@ 22
bombing 22
seated 22
foraging 22
cut@@ 22
mad@@ 22
lasers 22
estrogen 22
psyche 22
yan 22
sars 22
fierce 22
coated 22
ties. 22
pper 22
butter 22
gul@@ 22
fonts 22
synesthesia 22
landfill 22
dictatorship 22
ane@@ 22
zy 22
contagious 22
champagne 22
cali@@ 22
leveraging 22
ambiguous 22
flawed 22
thylacine 22
safe@@ 22
julia 22
vapor 22
call@@ 22
pollination 22
portal 22
cyber 22
dried 22
carbonate 22
bahamas 22
61 22
68 22
premature 22
nails 22
gary 22
questions. 22
ideo 22
outdoors 22
relying 22
tablet 22
sis 22
repe@@ 22
zoning 22
ati 22
rushing 22
exploding 22
butterfly 22
dispute 22
ening 22
doodling 22
verbs 22
ducks 22
broadband 22
manipulated 22
proliferation 22
motorcycle 22
persistence 22
exactly. 22
ikea 22
tides 22
chapel 22
lousy 22
whe@@ 22
sticker 22
accumulating 22
quoted 22
temples 22
downloaded 22
cliffs 22
assumes 22
coalition 22
imperfect 22
capsule 22
var@@ 22
bear@@ 22
alle@@ 22
pentagon 22
stiff 22
hive 22
bureaucracy 22
ari 22
smartphones 22
sourced 22
key@@ 22
temper@@ 22
light. 22
taped 22
conver@@ 22
digitally 22
composite 22
capitalist 22
leaned 22
professions 22
cartilage 22
3,@@ 22
aviation 22
apartheid 22
singers 22
profiles 22
aiming 22
dividing 22
graduation 22
dragging 22
intricate 22
arrange 22
replicated 22
tearing 22
tan 22
dam 22
love. 22
curved 22
regain 22
expressive 22
jelly 22
py@@ 22
altar 22
westerners 22
arrival 22
barefoot 22
iranians 22
clinically 22
lations 22
shu@@ 22
cochlear 22
joints 22
cleaner 22
ethnicity 22
visualizing 22
serial 22
adverse 22
110 22
weaving 22
surge 22
wednesday 21
doubts 21
mosques 21
greatness 21
temperate 21
try. 21
moons 21
35,000 21
gyrus 21
sank 21
quicker 21
infect 21
nickname 21
istic 21
thanksgiving 21
gg@@ 21
rus@@ 21
bipolar 21
socioeconomic 21
collide 21
vividly 21
telecommunications 21
ancestral 21
armies 21
monitors 21
yu@@ 21
am. 21
dity 21
blackberry 21
mbling 21
delusion 21
america. 21
phy@@ 21
ponds 21
kidnapped 21
ronald 21
embryonic 21
pinpoint 21
gordon 21
neglect 21
skins 21
annoyed 21
cans 21
conventions 21
panbanisha 21
centigrade 21
outs 21
commute 21
vascular 21
baltimore 21
mrs. 21
happy. 21
vietnamese 21
lun@@ 21
fahrenheit 21
whisper 21
illiterate 21
tourists 21
bait 21
laugh@@ 21
pathology 21
burnt 21
zodiac 21
yves 21
torch 21
simulator 21
peri@@ 21
city. 21
seamlessly 21
sweep 21
biting 21
misunderstood 21
senegal 21
titus 21
guts 21
acronym 21
marin@@ 21
flat@@ 21
empirical 21
destined 21
e.u. 21
knit 21
width 21
tigers 21
16th 21
ambient 21
vacant 21
bet@@ 21
installations 21
diff@@ 21
break@@ 21
slipped 21
freud 21
compu@@ 21
liters 21
lock@@ 21
moth 21
walmart 21
homeland 21
b.c. 21
integral 21
pastor 21
steep 21
marke@@ 21
oppression 21
devote 21
solely 21
allo@@ 21
tha 21
manure 21
cheated 21
incidents 21
subsidies 21
progressively 21
servant 21
fine. 21
kindly 21
gloves 21
banjo 21
encode 21
stance 21
proust 21
cognitively 21
nutritious 21
resident 21
shelters 21
193@@ 21
wag@@ 21
venter 21
ops 21
cuban 21
rediscover 21
knives 21
extracellular 21
jl 21
lakota 21
brute 21
nutrient 21
reluctant 21
titled 21
kil@@ 21
bbing 21
scattered 21
dysfunctional 21
luke 21
pes 21
optics 21
morning. 21
deprived 21
lling 21
fix@@ 21
deployment 21
upstream 21
darfur 21
sanitary 21
cooper 21
ic. 21
holder 21
begging 21
freaking 21
filmmakers 21
guides 21
provider 21
oneself 21
12th 21
impress 21
locking 21
lesion 21
ferguson 21
transistor 21
align 21
aggression 21
browse 21
atrazine 21
siege 21
fooled 21
whitopia 21
alley 21
match@@ 21
ance. 21
planners 21
tz 21
chewing 21
legend 21
sensations 21
hero@@ 21
ivan 21
mighty 21
thir@@ 21
loyal 21
upgrade 21
manuscripts 21
amanda 21
cer 21
fiscal 21
supercomputer 21
vet 21
aimed 21
sneak 21
imprisoned 21
mindful 21
assignments 21
poke 21
frontiers 21
ele@@ 21
aqu@@ 21
violation 21
tire 21
grad 21
spotted 21
quiz 21
astounding 21
persistent 21
quantify 21
featured 21
melted 21
defeated 21
cern 21
journals 21
jackson 21
sideways 21
legitimacy 21
mun@@ 21
crimin@@ 21
paragraph 21
dele@@ 21
constitu@@ 21
birth@@ 21
cabin 21
imbalance 21
41 21
aftermath 21
aspire 21
1969 21
vic@@ 21
alabama 21
hat@@ 21
cosmology 21
imposing 21
subsequent 21
thursday 21
78 21
rainy 21
immersed 21
dilemmas 21
darkest 21
hindu 21
denser 21
tactics 21
ruling 21
grapes 21
irre@@ 21
toaster 21
handing 21
something. 21
summed 21
anim@@ 21
kissing 21
snail 21
servers 21
submersible 21
occasional 21
energetic 21
ct. 21
ingenious 21
extremists 21
troubling 21
wetlands 21
pragmatic 21
ces. 21
commercially 21
rated 21
vibrate 21
country. 21
wavelength 21
tehran 21
everywhere. 21
shuffle 21
atu@@ 21
archimedes 21
toyota 21
ids 21
chat@@ 21
yel@@ 21
malawi 21
surrounds 21
achilles 21
sense. 21
rewarding 21
panama 21
deemed 21
dering 21
geology 21
rachel 21
twisted 21
solomon 21
e.t. 21
insult 21
dic 21
spirituality 21
ately 21
hurting 21
flute 21
age. 21
genomic 21
volunteered 21
headaches 21
nation@@ 21
50th 21
presidents 21
ude 21
utopian 21
kno@@ 21
aca@@ 21
genital 21
enterprises 21
oney 21
poisoning 21
sex@@ 21
wool 21
messed 21
aaron 21
sony 21
gig@@ 21
hi. 21
ky@@ 21
manipulating 21
ice. 21
biomedical 21
pepsi 21
boot 21
watch@@ 20
sed. 20
oprah 20
positively 20
pioneering 20
spit 20
echo@@ 20
fisherman 20
sponsor 20
ona 20
warriors 20
geothermal 20
antidote 20
hypertension 20
jargon 20
baton 20
skepticism 20
bypass 20
day@@ 20
pleasures 20
adaptable 20
presses 20
spam 20
organ@@ 20
eleven 20
space@@ 20
pies 20
replication 20
elusive 20
dumping 20
pasted 20
plotted 20
brain. 20
hertz 20
corps 20
bass 20
dire 20
asl 20
boredom 20
locals 20
ke. 20
interfere 20
cradle 20
indirectly 20
swam 20
recordings 20
ventilation 20
christopher 20
imitate 20
oms 20
jer@@ 20
dismiss 20
specialization 20
can. 20
inherit 20
fuck 20
waist 20
complaints 20
strain 20
companion 20
vending 20
e.@@ 20
pissed 20
wer@@ 20
abi@@ 20
screwed 20
-@@ 20
scri@@ 20
aled 20
spin@@ 20
brutality 20
twit@@ 20
diagrams 20
ami@@ 20
costumes 20
commonplace 20
participant 20
flashing 20
generalize 20
orbits 20
concentrating 20
hunted 20
rever@@ 20
impacting 20
fgm 20
lone 20
audacious 20
dale 20
para@@ 20
ones. 20
tahrir 20
interpreted 20
differential 20
11,000 20
perpetual 20
big@@ 20
payoff 20
assured 20
190@@ 20
dealer 20
logist 20
nice. 20
undermine 20
ant. 20
6. 20
doub@@ 20
sparked 20
indicator 20
sey 20
selectively 20
devi@@ 20
wearable 20
hives 20
essay 20
logistics 20
á@@ 20
latino 20
temporarily 20
ballot 20
blanket 20
mped 20
enhancing 20
eu 20
comprised 20
veteran 20
punished 20
builders 20
buzz 20
edi@@ 20
underlies 20
bed@@ 20
opaque 20
pixel 20
pins 20
comm@@ 20
worked. 20
projecting 20
activation 20
vector 20
cholesterol 20
underwear 20
ddle 20
payload 20
grou@@ 20
sof@@ 20
unexplored 20
devastation 20
sword 20
interference 20
creatively 20
framing 20
margin 20
drain 20
lian 20
energies 20
token 20
pathetic 20
shaman 20
fish@@ 20
cruelty 20
alignment 20
bach 20
plugged 20
fishes 20
peanut 20
knight 20
design@@ 20
rich@@ 20
ripples 20
enthusiastic 20
mantis 20
geek 20
exxon 20
prin@@ 20
ell@@ 20
são 20
migrated 20
scratching 20
automation 20
fried 20
swear 20
fingerprint 20
tutor 20
ography 20
beast 20
stand@@ 20
hostage 20
infants 20
fur 20
rin@@ 20
recommended 20
judaism 20
redemption 20
fibonacci 20
sr 20
sj 20
reflex 20
appointment 20
med@@ 20
tedster 20
masculinity 20
myo@@ 20
storing 20
ulation 20
causal 20
subset 20
regulatory 20
crappy 20
sibling 20
tapir 20
absent 20
displayed 20
consulting 20
1957 20
mandarin 20
recipient 20
arabs 20
cookies 20
ions 20
uring 20
ye 20
conf@@ 20
bakery 20
illa 20
wondrous 20
crystals 20
vable 20
suitable 20
persist 20
navy 20
dwell 20
extracting 20
photographic 20
unt 20
stratosphere 20
bells 20
rng 20
grading 20
c.@@ 20
surrender 20
common@@ 20
elect 20
contradictions 20
headphones 20
friedman 20
forbidden 20
emo@@ 20
ences 20
barbara 20
reinforced 20
malignant 20
electoral 20
danced 20
facade 20
gardening 20
comple@@ 20
pharmaceuticals 20
implicit 20
enhanced 20
darker 20
overwhelmingly 20
av 20
oiled 20
part@@ 20
56 20
jennifer 20
gie 20
nathan 20
block@@ 20
microphones 20
ables 20
resonate 20
guerrillas 20
proxy 20
proceed 20
unthinkable 20
experimenter 20
tamiflu 20
hangs 20
79 20
stimulated 20
cheer 20
contractor 20
madagascar 20
88 20
rel@@ 20
mutant 20
contributes 20
ction 20
bitten 20
acquisition 20
signatures 20
patented 20
adopting 20
ols 20
elon 20
liz@@ 20
aligned 20
mindfulness 20
slot 20
congressional 20
inuit 20
bureau 20
sampling 20
int@@ 20
kly 20
blues 20
anecdote 20
beams 20
accommo@@ 20
apping 20
scars 20
adjusted 20
printers 20
overfishing 20
lest 20
thic@@ 20
cyber@@ 20
hike 20
il. 20
drip 20
competence 20
stimulating 20
avoided 20
quad@@ 20
chefs 20
free@@ 20
rec@@ 20
casual 20
peanuts 20
motivates 20
transcendence 20
blindly 20
lip 20
sponsored 20
pillar 20
patho@@ 20
microorganisms 20
nal 20
nicholas 20
biblical 20
converting 20
seniors 20
intersections 20
7.@@ 20
tapes 20
pad@@ 20
incubator 20
doug 20
undercover 20
tapping 20
sushi 20
lier 20
impulses 20
pumping 20
stretches 20
moderate 20
ranges 20
publisher 20
weave 20
icelandic 20
originals 20
jason 20
scandal 20
amygdala 20
dal 20
warned 20
hazard 20
ks. 20
thanks. 20
ted@@ 20
adolescent 20
sts. 20
claiming 20
risd 20
seeks 20
hypotheses 20
diana 20
fred 20
queer 20
bureaucratic 20
antidepressants 20
protocells 20
donald 20
accomplishments 20
tool@@ 20
tai@@ 20
attended 20
hull 20
stanley 20
mortgage 20
dic@@ 20
fridge 20
scored 20
slick 20
rock@@ 20
branded 20
grabbing 20
relieved 20
spears 20
credible 20
noted 20
interrupted 20
divers 20
sus@@ 20
agreements 20
repetition 20
eh 20
ez 20
fin 19
cheaply 19
irs 19
lot. 19
fry 19
plaque 19
marshall 19
queue 19
locks 19
hopkins 19
kilogram 19
midwest 19
substances 19
blended 19
untouched 19
dder 19
ema@@ 19
puzzling 19
villagers 19
aurora 19
coins 19
minated 19
ess@@ 19
policymakers 19
gears 19
cone 19
charismatic 19
punched 19
innocence 19
utilize 19
brightest 19
1918 19
blockchain 19
brighter 19
urban@@ 19
tos@@ 19
analyst 19
reptiles 19
nutritional 19
micros@@ 19
ency 19
lifts 19
examining 19
entertaining 19
legos 19
announcing 19
phi@@ 19
mortal 19
communism 19
amplify 19
elastic 19
news. 19
captcha 19
leaking 19
seminal 19
dads 19
assembling 19
metaphorical 19
mas@@ 19
ans@@ 19
weir@@ 19
cloudy 19
weigh@@ 19
protocols 19
inability 19
dairy 19
liars 19
legi@@ 19
tedtalks 19
solitude 19
mastered 19
regulated 19
defect 19
ries 19
johns 19
invo@@ 19
rainbow 19
wrestling 19
hard. 19
embryo 19
litigation 19
stunning 19
conceived 19
excessive 19
wasp 19
170 19
cumulative 19
crocodile 19
solves 19
set@@ 19
believer 19
creations 19
bad. 19
loudly 19
accessing 19
cloned 19
oh. 19
indicating 19
misses 19
stirling 19
wheel@@ 19
leo 19
delightful 19
exchanges 19
partisan 19
cl 19
hottest 19
lingu@@ 19
xed 19
xes 19
moment. 19
greed 19
binds 19
dd 19
faiths 19
lesterland 19
flaw 19
aver@@ 19
justi@@ 19
ee 19
eb 19
gas@@ 19
sunset 19
comet 19
south@@ 19
bomber 19
hurry 19
idaho 19
dip 19
plasticity 19
biomimicry 19
shaw 19
colonization 19
ases 19
rotten 19
congolese 19
vir@@ 19
fundamentalism 19
dom@@ 19
ici@@ 19
cle@@ 19
exclusion 19
tivity 19
preach 19
hh 19
downstream 19
expeditions 19
ig 19
yelling 19
sergio 19
pavilion 19
indicated 19
pointer 19
bathe 19
mustard 19
leaked 19
istanbul 19
tun@@ 19
alexandria 19
matter. 19
excites 19
rop@@ 19
demo@@ 19
stewardship 19
wakes 19
literate 19
fulfilled 19
implants 19
biofuels 19
gil@@ 19
jonas 19
cafeteria 19
varying 19
marble 19
three. 19
unbelievably 19
prostitution 19
violated 19
cent@@ 19
od 19
desperation 19
tomatoes 19
swarm 19
strengthen 19
costing 19
injecting 19
altruistic 19
3.5 19
nazis 19
desired 19
saturated 19
obey 19
shri@@ 19
abstraction 19
tires 19
foremost 19
rotates 19
accomplishment 19
sl 19
millimeters 19
sentient 19
scar 19
polarized 19
alleviate 19
admission 19
quanti@@ 19
licensed 19
graduating 19
decay 19
inclusion 19
reacted 19
linda 19
mies 19
ln 19
vy 19
therapeutic 19
jesse 19
calculators 19
daunting 19
implementation 19
exemp@@ 19
taker 19
emit 19
dia@@ 19
curse 19
cam 19
xl 19
slam 19
fir@@ 19
aura 19
polymer 19
suited 19
dread 19
knocking 19
positioned 19
zambia 19
hydrothermal 19
mainframe 19
specialty 19
virtuous 19
advocates 19
rsw 19
snapshot 19
invisibility 19
101 19
mammogram 19
oscar 19
ware 19
12@@ 19
pantheon 19
suppress 19
suc@@ 19
filtered 19
wrong@@ 19
ved. 19
outdated 19
battling 19
ways. 19
stimul@@ 19
participated 19
1. 19
isolate 19
battle@@ 19
bumping 19
prism 19
eness 19
declare 19
regre@@ 19
know@@ 19
chariot 19
revol@@ 19
maryland 19
reserved 19
descendants 19
takers 19
emb@@ 19
mystical 19
cheapest 19
masterpiece 19
grasses 19
snor@@ 19
sanctuary 19
hostility 19
criticized 19
harming 19
ell 19
vibration 19
ruined 19
butterflies 19
ves. 19
dispos@@ 19
eden 19
mot@@ 19
oni@@ 19
cds 19
graham 19
clash 19
cing 19
firstly 19
scares 19
14th 19
foragers 19
occupying 19
hoo 19
campaigning 19
hectares 19
succeeding 19
decreased 19
threatens 19
repli@@ 19
vis 19
mali 19
plank 19
broadway 19
six@@ 19
project. 19
raging 19
consumes 19
psychiatry 19
pyramids 19
toughest 19
health@@ 19
haul 19
1940s 19
rationally 19
descent 19
rouge 19
imitation 19
future. 19
stockholm 19
carpenter 19
exhibitions 19
kel@@ 19
sta 19
surveyed 19
imam 19
motivating 19
reed 19
ner@@ 19
cen@@ 19
durable 19
wellness 19
chalk 19
updated 19
oly@@ 19
downs 19
zeros 19
inspirational 19
pop@@ 19
over. 19
else. 19
mutilation 19
tracy 19
decode 19
really. 19
dian 19
abc 19
lovers 19
nomin@@ 19
fulfillment 19
multiplication 19
empires 19
facilitate 19
phases 19
clearing 19
primordial 19
maze 19
patches 19
guiding 19
bunk 19
mercury 19
hus@@ 19
combustion 19
dedication 19
gam@@ 19
gifted 19
intellect 19
rounds 19
pioneered 19
astonished 19
ss. 19
ling@@ 19
captures 19
materi@@ 19
alg@@ 19
albeit 19
sandwiches 19
plywood 19
dollars. 19
fulness 19
got@@ 19
fences 19
sediment 19
supermassive 19
tening 18
yahoo 18
osis 18
clicked 18
bliss 18
optimist 18
ades 18
congratulations 18
transgender 18
palms 18
milli@@ 18
ony 18
phic 18
fecal 18
phthalates 18
traumatized 18
gadget 18
offline 18
testament 18
favela 18
ometer 18
infamous 18
open@@ 18
houston 18
volts 18
ared 18
tot@@ 18
crux 18
escal@@ 18
pits 18
inger 18
sabbatical 18
cooled 18
attorney 18
valuing 18
domains 18
orwell 18
dynamically 18
teamed 18
athe@@ 18
pitches 18
haw@@ 18
bribes 18
requiring 18
beg@@ 18
rockefeller 18
asser@@ 18
picture. 18
momentous 18
will@@ 18
dubai 18
tofu 18
visibility 18
israelis 18
appointed 18
poin@@ 18
embodiment 18
sequel 18
craters 18
erased 18
propeller 18
itis 18
ipods 18
stan 18
compromised 18
unrelated 18
sliced 18
egos 18
venezuela 18
lettuce 18
mario 18
thinner 18
20. 18
funders 18
biography 18
intractable 18
spikes 18
botswana 18
lowing 18
uterus 18
chi 18
eun 18
intermediate 18
bathing 18
diets 18
@ 18
ridicule 18
gadgets 18
dal@@ 18
ale@@ 18
juggling 18
minnesota 18
excerpt 18
dials 18
infidelity 18
sten@@ 18
eagle 18
superman 18
space. 18
run@@ 18
cortisol 18
bou@@ 18
weed 18
lish 18
capit@@ 18
marching 18
puncture 18
antennae 18
toddler 18
bertie 18
droughts 18
ideas. 18
ensuring 18
intimidating 18
differentiated 18
bedrock 18
sure. 18
danish 18
ampu@@ 18
appro@@ 18
casually 18
left. 18
supporters 18
alter@@ 18
ggles 18
runners 18
ima@@ 18
booms 18
aa 18
interpreting 18
neglected 18
ded. 18
misuse 18
sleeve 18
hollow 18
spelled 18
onion 18
pension 18
psychopathic 18
imagin@@ 18
aks 18
supermarkets 18
dj 18
dg 18
comparative 18
1974 18
modules 18
reception 18
candles 18
kir@@ 18
flint 18
seekers 18
theoretically 18
chunks 18
optic 18
sw@@ 18
rus 18
diminished 18
austin 18
bel 18
evolutionarily 18
kicks 18
controllers 18
hy 18
hp 18
administrators 18
lobes 18
posting 18
plains 18
soils 18
romo 18
admittedly 18
verify 18
alfred 18
spraying 18
holders 18
analogies 18
uri@@ 18
swe@@ 18
uprising 18
penn 18
desks 18
alternate 18
daring 18
aquaculture 18
finest 18
pots 18
messing 18
comfortably 18
anything. 18
attributed 18
porous 18
1982 18
lab@@ 18
auction 18
layered 18
lesser 18
bli@@ 18
ich 18
jacques 18
ang 18
ani 18
ating. 18
pinnacle 18
nothingness 18
vantage 18
you@@ 18
electro@@ 18
scheduled 18
informant 18
assemb@@ 18
taylor 18
identi@@ 18
ical 18
lized 18
batch 18
conceivable 18
vienna 18
blobs 18
spines 18
studios 18
geiger 18
25@@ 18
acks 18
loser 18
base@@ 18
humbling 18
sinking 18
opponents 18
counseling 18
rg 18
addict 18
smelled 18
voyager 18
classification 18
consultants 18
polluted 18
ineffective 18
tutoring 18
crushing 18
fmri 18
cite 18
compress 18
starving 18
five. 18
anonymity 18
fission 18
necessity 18
carol 18
sies 18
rubbish 18
collagen 18
vs 18
matthew 18
android 18
selecting 18
lowered 18
desirable 18
gamble 18
rocky 18
ort@@ 18
latter 18
mmed 18
filming 18
rwandan 18
woven 18
cas 18
tize 18
ominous 18
yin 18
constitutional 18
lol 18
chemo 18
sook 18
douglas 18
lot@@ 18
catches 18
wiser 18
fish. 18
.5 18
dull 18
psycho 18
kate 18
miners 18
yorkers 18
buckets 18
mistaken 18
governing 18
setup 18
boarding 18
mitigate 18
wetsuit 18
unk 18
gorilla 18
mi 18
crazy. 18
rot@@ 18
silently 18
ssed 18
2. 18
2d 18
eleanor 18
aches 18
ounce 18
festivals 18
collabor@@ 18
airbnb 18
foxo 18
socket 18
cockroaches 18
chatting 18
julie 18
walkable 18
yang 18
provocative 18
expenses 18
inertia 18
frustrations 18
galois 18
empathize 18
prescriptions 18
handled 18
lawns 18
flapping 18
tobacco 18
ial 18
cops 18
diy 18
abalone 18
ut@@ 18
babylon 18
disc 18
74 18
degrading 18
seller 18
wrestle 18
possession 18
flee 18
bonobo 18
mountain@@ 18
amen 18
granny 18
fertilizers 18
scar@@ 18
classify 18
loc@@ 18
customization 18
peril 18
lacked 18
badge 18
grow@@ 18
dge@@ 18
offense 18
beatles 18
boomers 18
intimately 18
twists 18
bravery 18
conju@@ 18
cords 18
infer@@ 18
kne@@ 18
forwards 18
broad@@ 18
osama 18
visuals 18
scarf 18
behaved 18
withstand 18
explosive 18
resin 18
ander@@ 18
rosling 18
patri@@ 18
roman@@ 18
exile 18
picasso 18
why. 18
ancy 18
aliz@@ 18
cycling 18
care. 18
coolest 18
stickers 18
jos@@ 18
keepers 18
utopia 18
celebrities 18
parade 18
carter 18
shoreline 18
play. 18
argu@@ 18
purchasing 18
voic@@ 18
ote 18
christ@@ 18
monetary 18
balkans 18
technician 18
po 18
penny 18
jams 18
wre@@ 18
ings. 18
anatom@@ 18
membranes 18
inappropriate 18
greedy 18
atrocities 18
gradual 18
amne@@ 18
spectacle 18
7,@@ 18
maintained 18
mop 18
0th 18
stretching 18
bid 18
accounted 18
sins 18
arkansas 18
compensation 18
embody 18
preliminary 18
reti@@ 18
stripes 18
promoted 18
four@@ 18
changer 18
scaffolding 18
scissors 18
1979 18
mahmoud 18
betting 18
teapot 18
mentioning 18
bassem 18
algorithmic 18
eternity 18
navigation 18
appe@@ 18
trafficking 18
night@@ 18
psychopaths 18
fearless 18
sampled 18
championship 18
gir@@ 18
harmless 18
personalization 18
financed 18
technologically 18
200@@ 18
unlimited 18
white@@ 18
ukraine 18
tism 18
tray 18
anno@@ 18
wish@@ 18
dens 18
illinois 18
gan 18
shocks 17
insecurity 17
titanium 17
arousal 17
limitless 17
yl@@ 17
professionally 17
inadvertently 17
marched 17
crown 17
smashed 17
perpetu@@ 17
ö@@ 17
swollen 17
puri@@ 17
lead@@ 17
sickness 17
defy 17
introspection 17
pling 17
doom 17
dismissed 17
fail@@ 17
essays 17
atively 17
spins 17
extinctions 17
mom@@ 17
newest 17
bra 17
sweater 17
separates 17
synonymous 17
antarctic 17
respecting 17
haunted 17
superpowers 17
counterparts 17
liberties 17
soy 17
bling 17
flipping 17
neatly 17
interstate 17
suspects 17
foam 17
ama 17
tragedies 17
yellowstone 17
pitched 17
semantic 17
criticize 17
greg 17
fications 17
memorized 17
minorities 17
ada 17
competitions 17
smiled 17
stunned 17
line@@ 17
salvation 17
gut@@ 17
maths 17
tinkering 17
blades 17
estimation 17
diplomats 17
buddy 17
monumental 17
restored 17
diagnoses 17
fleeing 17
600,000 17
incidence 17
gen 17
hospice 17
declaration 17
itself. 17
aria 17
row@@ 17
mmm 17
valentine 17
converge 17
selec@@ 17
valves 17
xen@@ 17
compost 17
hamlet 17
fixes 17
chick 17
hail 17
gation 17
soda 17
adhd 17
51 17
allocate 17
nerdy 17
compe@@ 17
pores 17
sequ@@ 17
transi@@ 17
liberate 17
negroponte 17
tra 17
nato 17
algeria 17
dissolve 17
disclose 17
clos@@ 17
jars 17
stakeholders 17
distract 17
reframe 17
susie 17
money. 17
caregiver 17
gridlock 17
spores 17
of@@ 17
hockey 17
genic 17
clan 17
destroys 17
freaked 17
è@@ 17
consult 17
goo@@ 17
focal 17
cus@@ 17
dig@@ 17
aerodynamic 17
demonstrating 17
venom 17
erian 17
ripe 17
delivers 17
dur@@ 17
prosperous 17
zer 17
giraffe 17
recovering 17
inflate 17
disadvantage 17
portuguese 17
veiled 17
relational 17
illumination 17
spy 17
13th 17
stems 17
traps 17
tuition 17
paints 17
atten@@ 17
fs 17
fe 17
atol@@ 17
geologists 17
frac@@ 17
does. 17
gg 17
apo@@ 17
sobule 17
hyperbolic 17
lightly 17
shrunk 17
before. 17
instructor 17
kabul 17
veterinarians 17
proceeded 17
stresses 17
ip 17
iw 17
ie 17
jealous 17
sprawl 17
quarks 17
daytime 17
wers 17
napkin 17
alone. 17
mubarak 17
js 17
autonomously 17
sion@@ 17
aci@@ 17
bookstore 17
land. 17
bloom 17
dolls 17
charitable 17
decoration 17
appalling 17
graves 17
reconstructed 17
ld 17
latitude 17
wholly 17
colombian 17
andes 17
1987 17
1983 17
1988 17
kid@@ 17
execu@@ 17
stared 17
love@@ 17
chuck 17
expo 17
god. 17
jazeera 17
ick 17
grav@@ 17
adore 17
nr 17
eiffel 17
contemplating 17
descended 17
tul@@ 17
slightest 17
met@@ 17
someplace 17
oids 17
hardwired 17
diplomatic 17
arnold 17
photos@@ 17
converts 17
devoid 17
carbs 17
2000s 17
policemen 17
dead@@ 17
hap@@ 17
show@@ 17
sustainably 17
birch 17
loading 17
red. 17
summers 17
spon@@ 17
underst@@ 17
mined 17
phot@@ 17
sioux 17
mimicking 17
rw 17
kur@@ 17
planner 17
grazing 17
elevation 17
speculation 17
crammed 17
kening 17
adaptability 17
ouse 17
considers 17
diffuse 17
consultant 17
internet. 17
atlas 17
dividend 17
composting 17
west@@ 17
tless 17
feces 17
reco@@ 17
ut 17
walk@@ 17
mediated 17
cles 17
listeners 17
packet 17
invites 17
vr 17
whistles 17
authenti@@ 17
convergence 17
ini 17
reckless 17
cit@@ 17
movable 17
waitress 17
vets 17
construc@@ 17
seizure 17
oblivious 17
mmer 17
dengue 17
precedent 17
hannah 17
cab 17
sweeney 17
ination 17
directing 17
ffs 17
geographically 17
wolf 17
miguel 17
experience. 17
perseverance 17
bomb@@ 17
vol@@ 17
draw@@ 17
accustomed 17
excluded 17
suite 17
redefining 17
milliseconds 17
guerrilla 17
illuminate 17
confess 17
plague 17
bases 17
ous@@ 17
transformational 17
pardon 17
baking 17
liberated 17
buck@@ 17
milan 17
helen 17
transnational 17
clar@@ 17
superconductor 17
hiroshima 17
lords 17
moscow 17
comedian 17
tat@@ 17
celled 17
tectonic 17
emp@@ 17
cker 17
computer. 17
dentist 17
subconscious 17
vely 17
freestyle 17
demon@@ 17
emitted 17
bull 17
seriousness 17
evoke 17
gin@@ 17
aching 17
calorie 17
dysfunction 17
inconvenient 17
to. 17
interacts 17
doorstep 17
cowboy 17
outbreaks 17
lls 17
trunks 17
mister 17
uncles 17
collects 17
person. 17
risking 17
joking 17
mellon 17
purchased 17
colder 17
usda 17
73 17
advocating 17
holidays 17
wash@@ 17
associations 17
endurance 17
copernicus 17
stark 17
hippie 17
stabilized 17
4th 17
limiting 17
module 17
publishers 17
hindi 17
snu@@ 17
ranks 17
magically 17
fidelity 17
supp@@ 17
ann 17
bobby 17
freshman 17
underestimated 17
restorative 17
packets 17
insignificant 17
contemplate 17
divides 17
transplants 17
draft 17
tours 17
vin 17
disadvantaged 17
diaspora 17
robin 17
ubuntu 17
onics 17
craving 17
behaves 17
mble 17
electrode 17
archie 17
sufficiently 17
antiangiogenic 17
mammalian 17
sive 17
fitted 17
abstr@@ 17
descend 17
nih 17
stair@@ 17
seductive 17
inorganic 17
eman@@ 17
mping 17
evaporate 17
mani@@ 17
lig@@ 17
dreadful 17
jor@@ 17
stically 17
lid 17
familiarity 17
cdc 17
hello. 17
savvy 17
lifelike 17
excellent. 17
colon@@ 17
affir@@ 17
quar@@ 17
umbrella 17
blogger 17
joins 17
stats 17
tapped 17
vodka 17
afforded 17
aboli@@ 17
lyrics 17
whichever 17
doctrine 17
dim 17
uruguay 17
cts. 17
tract 17
median 17
dedicate 17
bathrooms 17
dangerously 17
jan@@ 17
premium 17
ribbon 17
ports 17
5th 17
ager 17
fins 17
environmentalists 17
lives. 17
pronounced 17
piled 17
pediatrician 17
proportional 17
migrating 17
pil@@ 17
line. 17
das 17
angled 17
dable 17
cot@@ 17
ious 17
awarded 17
forestry 17
yell 17
hypo@@ 17
25th 17
decorative 17
wildly 17
rider 17
denominator 17
goggles 17
toothbrush 17
adapting 17
transporting 17
advertise 17
conversely 17
multiplied 17
possible. 17
oddly 17
45,000 17
abyss 17
miniature 17
domination 17
cries 17
pharmac@@ 17
14,000 17
ticking 17
lor@@ 17
inclined 17
flour 17
1.4 17
revi@@ 17
turbulent 17
protesters 17
murderer 17
maize 17
woody 16
wr@@ 16
wales 16
ful@@ 16
superficial 16
tallest 16
loo@@ 16
advancement 16
brigades 16
admired 16
sorted 16
fashionable 16
balconies 16
hashtag 16
sans 16
sane 16
gando 16
child@@ 16
heterosexual 16
barren 16
jun@@ 16
binding 16
yet. 16
tational 16
wrinkles 16
sock 16
faded 16
multimedia 16
joy@@ 16
ssing 16
book. 16
vaccin@@ 16
perceiving 16
cow@@ 16
1992 16
whereby 16
adorable 16
ship@@ 16
barbie 16
beaver 16
heightened 16
hr@@ 16
endeavors 16
cores 16
pictured 16
patter@@ 16
multicultural 16
depres@@ 16
dding 16
enforce 16
peeling 16
technology. 16
obsessive 16
cataly@@ 16
nollywood 16
examined 16
90,000 16
synchrony 16
om. 16
matters. 16
deah 16
kanner 16
starve 16
blood@@ 16
yar@@ 16
replicator 16
evol@@ 16
spans 16
assist 16
fertile 16
aid@@ 16
conven@@ 16
act. 16
rivals 16
curl 16
wards 16
edison 16
cred@@ 16
cha 16
heroism 16
emitting 16
teamwork 16
dou@@ 16
flashlight 16
justin 16
interdependence 16
tactile 16
blur 16
mess@@ 16
degeneration 16
corpus 16
sudhir 16
sponge 16
ppy 16
brow@@ 16
pore 16
lay@@ 16
separ@@ 16
arium 16
patrick 16
neurologic 16
corrup@@ 16
lov@@ 16
piracy 16
sus 16
horrified 16
immersion 16
coating 16
rein@@ 16
50@@ 16
demos 16
projector 16
rally 16
nico 16
confirmation 16
hierarchical 16
reimagine 16
miller 16
lus@@ 16
relay 16
gaming 16
grasslands 16
geneva 16
was. 16
lizing 16
bled 16
high@@ 16
cochrane 16
wavelengths 16
collisions 16
collapsing 16
considerably 16
jets 16
62 16
puzzled 16
ght@@ 16
petroleum 16
morph@@ 16
bends 16
1920s 16
observatory 16
worthless 16
vermeer 16
lize 16
nanometers 16
medal 16
maggots 16
ite@@ 16
harvested 16
glance 16
thi@@ 16
indifferent 16
zen 16
func@@ 16
conducive 16
ecologist 16
body@@ 16
point. 16
grizzly 16
grape 16
repetitive 16
fortunes 16
benefited 16
editorial 16
specimen 16
postcard 16
suppliers 16
astronomer 16
bility. 16
as. 16
pub 16
knots 16
tative 16
piss 16
ration@@ 16
modification 16
pounding 16
slash 16
humiliated 16
gb 16
chiefs 16
islamist 16
businessman 16
freespeech 16
pom@@ 16
sinister 16
balcony 16
nat@@ 16
straigh@@ 16
brightness 16
networked 16
commerci@@ 16
predi@@ 16
niece 16
psychologically 16
apper 16
fluent 16
grassland 16
defenders 16
communicates 16
communicated 16
j. 16
disappointment 16
joan 16
opium 16
disen@@ 16
purchases 16
1900s 16
audacity 16
hillside 16
less@@ 16
impoverished 16
temp@@ 16
nutshell 16
fished 16
fluids 16
query 16
proportions 16
ree 16
rat@@ 16
yearning 16
karl 16
bullying 16
problems. 16
eno 16
duct 16
sober 16
dru@@ 16
ropes 16
digestive 16
ballroom 16
teammates 16
regarding 16
shaft 16
goldilocks 16
outreach 16
nitric 16
750 16
beat@@ 16
subjected 16
benki 16
emulate 16
fall@@ 16
bic@@ 16
arrives 16
persuasive 16
pigeons 16
wiki@@ 16
kh 16
lemon 16
migrants 16
nostalgia 16
ddled 16
fon@@ 16
miner 16
bursts 16
analyses 16
emperor 16
continental 16
street@@ 16
rp 16
tempting 16
rusty 16
creek 16
harassment 16
authorized 16
skiing 16
sni@@ 16
nomadic 16
suspicion 16
constitutes 16
establishing 16
opec 16
inserted 16
spotlight 16
purse 16
ivy 16
hummingbird 16
swarms 16
hed 16
mash 16
td 16
tb 16
ound@@ 16
morgan 16
aud@@ 16
qualify 16
intercept 16
lei@@ 16
surrogate 16
entrenched 16
wirelessly 16
scape 16
ua 16
uc 16
melts 16
heforshe 16
rotation 16
outsider 16
vc 16
juan 16
v. 16
sped 16
1,600 16
revolutionize 16
cures 16
logs 16
autopsy 16
webcam 16
condemned 16
launches 16
compas@@ 16
saddam 16
prescribed 16
wan 16
copy@@ 16
entries 16
cargo 16
cad 16
vicinity 16
arity 16
crafts 16
maine 16
mond 16
monk 16
supernovae 16
logies 16
paranoid 16
trance 16
exercising 16
plots 16
opping 16
degra@@ 16
zooming 16
excruciating 16
marketed 16
ruby 16
sufi 16
glenn 16
protections 16
smack 16
complexities 16
war. 16
punk 16
marital 16
juliet 16
sup@@ 16
censored 16
vaginas 16
carving 16
galvan@@ 16
outskirts 16
madison 16
attracting 16
corn@@ 16
battered 16
affor@@ 16
modernism 16
mogadishu 16
heavier 16
themselves. 16
homosexuality 16
embed 16
planet. 16
canoe 16
asts 16
revive 16
branching 16
geniuses 16
jimmy 16
opponent 16
triump@@ 16
molas 16
help. 16
chil@@ 16
microscopes 16
tail@@ 16
stranded 16
wonderful. 16
inten@@ 16
character@@ 16
uncommon 16
thousandth 16
torial 16
mediate 16
collaborated 16
toe 16
curtains 16
1965 16
1967 16
1962 16
seas@@ 16
rupees 16
irregular 16
refu@@ 16
ela 16
proudly 16
trafficked 16
questionable 16
hospitality 16
bull@@ 16
synchronize 16
clearer 16
ket 16
adop@@ 16
newtonian 16
homage 16
acknowledging 16
langley 16
gui@@ 16
refrigeration 16
disappointing 16
advise 16
mock 16
hooks 16
ked. 16
bap@@ 16
horizontally 16
kun@@ 16
8. 16
reversed 16
smar@@ 16
obtain 16
backstage 16
0,000 16
plaques 16
risked 16
her. 16
branding 16
syrians 16
derive 16
cobra 16
morocco 16
discarded 16
essex 16
ligo 16
nex@@ 16
cockpit 16
ft. 16
fuller 16
meth@@ 16
loaf 16
grandpa 16
solly 16
metadata 16
conflicting 16
blurry 16
contractions 16
menstruation 16
suicidal 16
wrapping 16
phone. 16
striving 16
lar 16
forensic 16
insul@@ 16
tionists 16
migrant 16
bedtime 16
lymph 16
multitasking 16
alizes 16
rogue 16
ste 16
biopsy 16
4,@@ 16
immoral 16
hum@@ 16
skeptics 16
buyer 16
manifestations 16
sche 16
cleans 16
persuaded 16
hosting 16
crave 16
urbanism 16
undergoing 16
recruiting 16
chimp 16
13@@ 16
excel 16
dia 16
nyu 16
lexicon 16
syllab@@ 16
ters. 16
word@@ 16
pam 16
forged 16
disastrous 16
tweeting 16
rounded 16
monks 16
prophet 16
pollinate 16
ush 16
lend 16
breakup 16
dai 16
absorbing 16
tified 16
deb@@ 16
reign@@ 16
poker 16
commandment 16
scripture 16
trajectories 16
gab@@ 16
1949 16
comforting 16
heartbreaking 16
advent 16
sophistication 16
fetched 16
earth. 16
conversion 16
paraphrase 16
encourages 16
originated 16
superstar 16
fireflies 16
chor@@ 16
scre@@ 16
fax 16
chores 16
dana 16
pianist 16
completing 16
tal 16
transmitter 16
brilliantly 16
goog@@ 16
1.6 16
suey 16
cursor 16
oting 16
earthquakes 16
locate 16
rotting 16
unpack 15
perpetrator 15
activating 15
currencies 15
competed 15
seizures 15
retro@@ 15
tyranny 15
retrospect 15
portrayed 15
maxi@@ 15
megawatts 15
oversight 15
suspension 15
bursting 15
buffer 15
elam 15
small@@ 15
dubious 15
bioenergy 15
plumes 15
restoring 15
mindless 15
installing 15
tarahumara 15
lanka 15
course. 15
3. 15
mbled 15
mbles 15
deserved 15
hawaiian 15
crease 15
embarked 15
hampshire 15
maslow 15
sergeant 15
undersea 15
conductive 15
coherence 15
rhythmic 15
profession@@ 15
machine. 15
carriers 15
footsteps 15
intestine 15
attacker 15
lic@@ 15
guesses 15
aorta 15
ction. 15
big. 15
disgusted 15
tablets 15
adrenaline 15
intergalactic 15
incarcerated 15
ams 15
haram 15
outlook 15
fountain 15
anas 15
instagram 15
voc@@ 15
photoshop 15
os. 15
charlotte 15
harmed 15
imitating 15
hype 15
innovating 15
proton 15
makeshift 15
eeg 15
papua 15
turbines 15
clark 15
prevailing 15
constitute 15
receptors 15
itable 15
dogma 15
believers 15
defen@@ 15
resume 15
batman 15
marking 15
merit 15
bon 15
persuasion 15
tucked 15
gee 15
osphere 15
tuning 15
judging 15
adams 15
pigmented 15
number. 15
peace@@ 15
tex@@ 15
aggre@@ 15
masculine 15
leukemia 15
furious 15
turk 15
monarchy 15
statues 15
workplaces 15
comparisons 15
year@@ 15
crucially 15
circus 15
appetite 15
advisor 15
toxin 15
imaginable 15
insulation 15
hatch 15
center@@ 15
greeted 15
real@@ 15
za@@ 15
pork 15
entertain 15
holographic 15
reli@@ 15
intu@@ 15
astonishingly 15
troy 15
chit@@ 15
eureka 15
freed 15
tasty 15
tages 15
fas@@ 15
simulating 15
zy@@ 15
reside 15
ee@@ 15
plaza 15
campaign@@ 15
bonding 15
buffalo 15
melodies 15
provoke 15
pipa 15
demons 15
predictive 15
smoothly 15
veness 15
carrier 15
tying 15
endure 15
grove 15
nom@@ 15
b.@@ 15
relating 15
nicer 15
teeny 15
clam 15
ratios 15
amp@@ 15
autumn 15
accelerator 15
positioning 15
reversing 15
pigmentation 15
redesigning 15
dislike 15
malware 15
boeing 15
davis 15
paper@@ 15
insti@@ 15
kofi 15
ci 15
rigged 15
manic 15
bunker 15
chooses 15
indiana 15
pier@@ 15
blamed 15
1977 15
epa 15
swahili 15
confi@@ 15
states. 15
balances 15
vitality 15
altering 15
precursor 15
bombings 15
rooftop 15
bulgaria 15
sest 15
pesticide 15
dul@@ 15
iphones 15
curiously 15
credibility 15
life@@ 15
answer. 15
adap@@ 15
kingly 15
lacks 15
documentation 15
inert 15
jamie 15
with. 15
anthony 15
brussels 15
1800s 15
evi@@ 15
heats 15
9th 15
benchmark 15
jails 15
distinguished 15
transcendent 15
paycheck 15
carriage 15
fronts 15
laparoscopic 15
hunch 15
lucy 15
recon@@ 15
evalu@@ 15
iv 15
sporting 15
formerly 15
fork 15
vent@@ 15
stran@@ 15
shave 15
16,000 15
investigations 15
hungarian 15
je 15
mix@@ 15
nab@@ 15
responsi@@ 15
boom@@ 15
tender 15
ony@@ 15
pilgrimage 15
hardy 15
anonymously 15
warheads 15
quin@@ 15
tease 15
roughness 15
yan@@ 15
bisexual 15
tenure 15
hydrocarbons 15
exploited 15
laureate 15
exporting 15
exhibits 15
history. 15
suburbia 15
stool 15
gate@@ 15
flowering 15
merging 15
utilitarian 15
bake 15
typeface 15
monuments 15
t.b. 15
amel 15
dolly 15
poised 15
ow 15
prosper@@ 15
sculptural 15
debated 15
mobi@@ 15
news@@ 15
onal 15
uniforms 15
chairman 15
spir@@ 15
dropout 15
blur@@ 15
inhal@@ 15
geneticists 15
everyone. 15
author@@ 15
orangutan 15
doodle 15
depicted 15
uss 15
augment 15
ger. 15
distractions 15
undergraduates 15
ned. 15
jewel 15
raining 15
nigerians 15
ri 15
saul 15
cloning 15
yogurt 15
nationwide 15
ridiculously 15
sleeps 15
extremist 15
leness 15
tory 15
ripping 15
counselor 15
crochet 15
weibo 15
customized 15
scholarships 15
hem 15
vocational 15
escaping 15
sizing 15
distortion 15
upstairs 15
startup 15
reliably 15
hoo@@ 15
digitized 15
continu@@ 15
directive 15
polluting 15
expresses 15
bodily 15
legendary 15
gharial 15
reassuring 15
smash 15
climat@@ 15
therapists 15
screamed 15
chew 15
chen 15
wild@@ 15
wl 15
disagreement 15
marginal 15
progressed 15
compensate 15
commissioner 15
dled 15
decre@@ 15
redundancy 15
minating 15
lineage 15
car. 15
jarrett 15
slap 15
michelle 15
baghdad 15
prehistoric 15
commander 15
conquered 15
breeze 15
ruler 15
greeting 15
vegetarian 15
aimee 15
probabilities 15
instrumental 15
teeming 15
trustworthiness 15
extre@@ 15
constructions 15
recommendations 15
sport@@ 15
catalo@@ 15
prom@@ 15
ach. 15
sarajevo 15
reservation 15
zk 15
fatigue 15
relaunchers 15
tiveness 15
rep@@ 15
insurgency 15
here@@ 15
experimented 15
unconventional 15
synthesized 15
40@@ 15
shru@@ 15
progeria 15
watering 15
akin 15
faulty 15
crowd@@ 15
aboriginal 15
doo 15
dom 15
dow 15
tripled 15
sal 15
verses 15
tribu@@ 15
hay@@ 15
ribs 15
chri@@ 15
bounds 15
lorenzetti 15
discriminate 15
hh@@ 15
aye 15
preacher 15
shaky 15
listing 15
ora 15
mixes 15
suns 15
applicable 15
arrogance 15
raft 15
drake 15
cynical 15
gal 15
violently 15
administrative 15
constraint 15
aversion 15
cers 15
sewers 15
messenger 15
bios@@ 15
sally 15
skinny 15
graphy 15
inferior 15
enhances 15
manually 15
veri@@ 15
violate 15
strap 15
addictive 15
game. 15
immersive 15
kentucky 15
malaysia 15
lamps 15
crews 15
illuminating 15
hands. 15
shines 15
ade@@ 15
julius 15
judy 15
ula 15
gertrude 15
el. 15
vest 15
dete@@ 15
liter 15
crust 15
pony 15
reconnect 15
21@@ 15
dine 15
7. 15
mangrove 15
rocking 15
complaint 15
snails 15
demonstrates 15
luc@@ 15
belts 15
affluent 15
robo@@ 15
sopa 15
conversational 15
mari@@ 15
palsy 15
brist@@ 15
refer@@ 15
ting. 15
cle. 15
twain 15
echoes 15
emits 15
bau@@ 15
flutes 15
blinds 15
outlet 15
constituency 15
births 15
caus@@ 15
ddy 15
ddt 15
khmer 15
objectives 15
hai@@ 15
tentacles 15
coping 15
fts 15
bihar 15
evaluating 15
unto 15
ying. 15
fighter 15
gossip 15
scor@@ 15
repu@@ 15
hussein 15
going. 15
replica 15
tter 15
7th 15
vastness 15
circled 15
ily 15
examples. 15
concerning 15
mouaz 15
loid 15
compression 15
omega 15
tionary 15
idealism 15
aling 15
buck 15
sam@@ 15
indul@@ 15
contr@@ 15
tingly 15
happening. 15
donating 15
investigated 15
tus@@ 15
5.@@ 15
aff@@ 15
processors 15
highlighted 15
undergo 15
bride 15
information. 15
sket@@ 15
depleted 15
stumbling 15
volatile 15
undo 15
mind. 15
utah 15
times. 15
pumped 15
reservations 15
quot 15
witnessing 15
dging 15
eng@@ 15
exports 15
softly 15
bets 15
pellets 15
omes 15
hillary 15
crow@@ 15
decisive 15
nanotubes 15
caste 15
sat@@ 15
arrogant 15
horizons 15
reflec@@ 15
ning. 15
cyclist 15
latent 15
daf 15
georgetown 15
sis. 15
densities 15
orthodox 15
proximity 15
wealthier 15
mongolia 15
esoteric 15
fleeting 15
antiretroviral 15
dop@@ 15
virtu@@ 15
perfect. 15
iler 15
removes 15
stacks 15
policeman 15
replac@@ 15
ethiopian 15
ssa 15
bows 15
flakes 15
nos@@ 15
cheeks 15
incorrect 15
requested 15
exhausting 15
thought@@ 15
finances 15
tempest 15
fond 15
unions 15
dared 15
tren@@ 15
anna 15
collec@@ 15
par 15
denti@@ 15
hurdles 15
thumb@@ 15
tish 15
semen 15
retali@@ 15
feasible 15
stering 15
seaweed 15
closes 15
variants 15
dependency 15
dance. 15
1,800 14
scraped 14
e8 14
partnered 14
mutilated 14
idle 14
pandemics 14
committing 14
diminishing 14
get@@ 14
boiled 14
hay 14
induc@@ 14
smelling 14
trails 14
recipients 14
retrieve 14
initiate 14
rehab 14
inconsistent 14
impressions 14
want. 14
advertisement 14
tvs 14
russ 14
exten@@ 14
linguists 14
ading 14
initiated 14
maltese 14
first. 14
sely 14
cassette 14
initiation 14
humpback 14
ordering 14
tible 14
contagion 14
clocks 14
cracy 14
bloodline 14
cymatics 14
tioning 14
sculpt 14
cornell 14
reg@@ 14
dimitri 14
bore 14
cortical 14
thermostat 14
interval 14
naming 14
sible 14
snack 14
résumé 14
four. 14
brown@@ 14
tivi@@ 14
expen@@ 14
lamp@@ 14
stein@@ 14
lifestyles 14
restless 14
ving. 14
termites 14
egg@@ 14
00s 14
blair 14
consistency 14
powering 14
operators 14
neumann 14
spawning 14
ations. 14
sentiments 14
asi@@ 14
bitch 14
ges. 14
uri 14
ottoman 14
kicking 14
aler@@ 14
arm@@ 14
sprin@@ 14
stab 14
atheism 14
erup@@ 14
anie 14
downside 14
elle 14
nudge 14
carts 14
carta 14
whiskey 14
horrifying 14
advised 14
membership 14
noun 14
memo 14
coinci@@ 14
aroused 14
plumbing 14
voodoo 14
circumference 14
^ 14
cock 14
pis@@ 14
pests 14
obstruc@@ 14
mailbox 14
windmill 14
collectors 14
normality 14
curb 14
implies 14
formations 14
transducer 14
700,000 14
sorrow 14
hob@@ 14
tedwomen 14
ima 14
psychic 14
arom@@ 14
smi@@ 14
thorough 14
gratefulness 14
knocks 14
descending 14
deleted 14
nerds 14
limbic 14
fic@@ 14
fan@@ 14
dimen@@ 14
anda 14
athens 14
farmed 14
blueprints 14
debating 14
shment 14
gin 14
exchanging 14
wandered 14
mination 14
brigh@@ 14
portions 14
irrespective 14
kos@@ 14
ther. 14
wholesale 14
sociologists 14
ories 14
flick 14
fragility 14
emmanuel 14
milwaukee 14
traveler 14
rifle 14
skyscrapers 14
gill 14
dealers 14
paradigms 14
indefinitely 14
ried 14
antennas 14
typewriter 14
highlands 14
sentiment 14
holland 14
recyclable 14
massacre 14
leviathan 14
los@@ 14
buddhism 14
ency. 14
safest 14
jeremy 14
beli@@ 14
agre@@ 14
fossilized 14
writings 14
exce@@ 14
restriction 14
enrich 14
garment 14
displacement 14
blinded 14
victoria 14
sers 14
dent. 14
blind@@ 14
nixon 14
lays 14
cleanliness 14
extraterrestrial 14
maitreya 14
crooked 14
axe 14
reas@@ 14
psychiatrists 14
masterpieces 14
ac 14
aw 14
cpu 14
compliance 14
earnings 14
silks 14
attention. 14
sew 14
sails 14
aspiring 14
syringe 14
i.t. 14
carcasses 14
intellectually 14
galvao 14
edition 14
ballast 14
disrupted 14
droplet 14
dences 14
famili@@ 14
manned 14
eyesight 14
1978 14
mohamed 14
cherish 14
hump 14
igbo 14
misconception 14
purity 14
interrup@@ 14
goose 14
defenses 14
closeness 14
staged 14
dyslexic 14
rebuilt 14
kahn 14
chords 14
splitting 14
witnesses 14
fa 14
squeaks 14
pluripotent 14
mitchell 14
shah 14
donna 14
unchanged 14
carrots 14
reclaiming 14
glit@@ 14
horribly 14
expenditure 14
whistleblowers 14
cleveland 14
hw 14
hn 14
ho 14
naturalist 14
leymah 14
collector 14
resisting 14
folder 14
handwashing 14
scrap 14
anchor 14
firemen 14
hump@@ 14
flash@@ 14
commuting 14
template 14
sympathetic 14
harmon@@ 14
calais 14
nanos@@ 14
hubris 14
ranking 14
gyre 14
jr 14
bmi 14
sincere 14
impatient 14
reminding 14
adulter@@ 14
fresh@@ 14
thinking. 14
bounded 14
leaf@@ 14
kt 14
gators 14
hates 14
rebound 14
brit@@ 14
gone. 14
s.@@ 14
portray 14
24,000 14
seismic 14
baked 14
h5n1 14
interconnectedness 14
flop 14
blinking 14
contamination 14
brainstorming 14
intertwined 14
indirect 14
procrastinator 14
counsel 14
nm 14
twentieth 14
dublin 14
suffo@@ 14
canary 14
cutter 14
mated 14
neuro 14
fetuses 14
shir@@ 14
prolific 14
tee 14
killings 14
anxi@@ 14
rand@@ 14
autobiographical 14
marketplaces 14
wisconsin 14
cand@@ 14
vian 14
reunited 14
dissolved 14
procrastination 14
fucking 14
med. 14
introverted 14
usc 14
unites 14
puppets 14
strangeness 14
tyler 14
ship. 14
performs 14
regards 14
numbers. 14
dual 14
snuck 14
enact 14
paperwork 14
plunged 14
caution 14
solidi@@ 14
velcro 14
diabetic 14
vitro 14
lawsuits 14
denounce 14
jol@@ 14
capitol 14
disparity 14
wait. 14
eminent 14
activates 14
occurrence 14
claus 14
onally 14
aviv 14
favors 14
alled 14
palette 14
chap@@ 14
composers 14
cartoonists 14
elvis 14
detention 14
speculate 14
aah 14
monastery 14
achi@@ 14
cardi@@ 14
vertebrates 14
intri@@ 14
pickup 14
compliment 14
ticism 14
upbringing 14
euro 14
eled 14
bonnie 14
slim 14
delayed 14
bombar@@ 14
menting 14
whispering 14
gle@@ 14
runway 14
propri@@ 14
tickle 14
constellations 14
monologues 14
idal 14
palpable 14
stling 14
navigating 14
overcoming 14
ack@@ 14
losers 14
noah 14
promotes 14
thickness 14
menus 14
geopolitical 14
schizophrenic 14
tches 14
savage 14
shack 14
z. 14
jonathan 14
gat@@ 14
modul@@ 14
practitioners 14
trou@@ 14
issuing 14
pivotal 14
empathic 14
supernatural 14
spherical 14
peacekeepers 14
erie 14
10. 14
rests 14
dra 14
plea 14
lungi 14
waterfront 14
youngsters 14
color@@ 14
wasteful 14
buyers 14
intern 14
archi@@ 14
cleaners 14
widening 14
conveniently 14
takeoff 14
thom@@ 14
cascade 14
gamers 14
suffer@@ 14
disa@@ 14
exaggeration 14
extensively 14
understandings 14
dictators 14
resembles 14
sunk 14
rip@@ 14
orient 14
addi@@ 14
merchandise 14
redesigned 14
foreigners 14
librarians 14
hints 14
blan@@ 14
jessica 14
dissent 14
slammed 14
netra 14
consci@@ 14
lesions 14
oysters 14
satur@@ 14
frantically 14
tos 14
bs. 14
crack@@ 14
poisonous 14
reductions 14
goddess 14
incapable 14
5. 14
discount 14
nesting 14
prophecy 14
celsius 14
geor@@ 14
curing 14
tunes 14
swine 14
blunt 14
aspen 14
carb@@ 14
priests 14
slippery 14
exquisitely 14
euro@@ 14
sucking 14
shap@@ 14
prestige 14
inflection 14
transferring 14
plunge 14
consist 14
backbone 14
eds 14
grinding 14
inflammation 14
81 14
hul@@ 14
encouragement 14
cine 14
ants. 14
extin@@ 14
majesty 14
ventilated 14
campfire 14
strang@@ 14
travelers 14
bacon 14
trending 14
cucumber 14
crypto@@ 14
ambitions 14
stamps 14
seri@@ 14
ole 14
palestinians 14
tasmania 14
friend@@ 14
decreases 14
boundless 14
mounting 14
clari@@ 14
sweat@@ 14
offenders 14
noon 14
ffer 14
influenza 14
buzzing 14
shorthand 14
omni@@ 14
loosely 14
rives 14
mechan@@ 14
eigh@@ 14
treatable 14
illustrated 14
recruitment 14
gatherer 14
vaccinated 14
tempo 14
later. 14
chee@@ 14
courtyard 14
chernobyl 14
conserve 14
cellulose 14
dish@@ 14
overlapping 14
cited 14
power. 14
stick@@ 14
sions. 14
ila 14
conserv@@ 14
pep@@ 14
maya 14
reusable 14
columbus 14
disc@@ 14
flavors 14
traction 14
gospel 14
analogous 14
rude 14
lateral 14
daisy 14
precip@@ 14
probable 14
coup 14
cemetery 14
translucent 14
inj@@ 14
mismatch 14
deterior@@ 14
broadmoor 14
fireman 14
17,000 14
embryos 14
cello 14
devise 14
ske@@ 14
pay@@ 14
bal 14
exc@@ 14
hardworking 14
doha 14
tinker 14
massage 14
breathtaking 14
cism 14
africa. 14
possess 14
gracefully 14
gaga 14
tization 14
childbirth 14
venues 14
disciplinary 14
mob 14
help@@ 14
instantaneously 14
improvising 14
celestial 14
weights 14
diagnosing 14
stacking 14
possessions 14
favorable 14
obligations 14
vine 14
fundamentalists 14
aus@@ 14
bia 14
hope. 14
downhill 14
sermon 14
chased 14
dictate 14
kits 14
tyrant 14
outliers 14
homer 14
handwriting 14
linkedin 14
sofa 14
audible 14
corner@@ 14
logarithmic 14
analysts 14
rowing 14
clean@@ 14
lib@@ 14
recei@@ 14
tful 14
beers 14
spun 14
mper 14
dence 14
sunrise 14
maneuver 14
marines 14
fly@@ 14
matri@@ 14
deposited 14
submarines 14
ashes 14
ure. 14
lation. 14
dexterity 14
sman 14
stall 14
font 14
anguish 14
prop 14
exoplanets 14
porch 14
0.1 14
gehry 14
word. 14
ghts 14
glacial 14
mystic 13
sermons 13
tempted 13
boardroom 13
coo@@ 13
conditioned 13
municipal 13
ader 13
mbi 13
valu@@ 13
macho 13
bour@@ 13
troubles 13
revolutionized 13
parti@@ 13
bran@@ 13
healed 13
rudder 13
aders 13
negativity 13
ecologically 13
industri@@ 13
overboard 13
starlight 13
calving 13
chk 13
chu 13
considerable 13
synchron@@ 13
victor 13
billboards 13
unprepared 13
mainland 13
scent 13
gays 13
bred 13
taps 13
styrofoam 13
mind@@ 13
gang@@ 13
mozambique 13
manta 13
outlets 13
jamaica 13
sobering 13
flung 13
jenipher 13
penetration 13
peacebuilding 13
synthesizing 13
implicated 13
jose 13
supplement 13
pillow 13
noses 13
ctive 13
carica@@ 13
unlocked 13
reality. 13
pac 13
747 13
ninja 13
aires 13
spring@@ 13
ranked 13
unfolded 13
cooper@@ 13
eel 13
negatives 13
smiley 13
ryan 13
stru@@ 13
comets 13
hearted 13
regul@@ 13
wic@@ 13
refuge 13
painters 13
chemically 13
disposable 13
fear@@ 13
stories. 13
ania 13
physi@@ 13
lear@@ 13
upstreamists 13
marie 13
breathed 13
drilled 13
ks@@ 13
unicorn 13
wri@@ 13
gould 13
strengthening 13
ens@@ 13
sovereignty 13
soviets 13
sistine 13
fascinating. 13
sahel 13
formulas 13
beth 13
nationality 13
censor 13
puffs 13
ium 13
insur@@ 13
robinson 13
increments 13
doubles 13
corridor 13
squi@@ 13
assisted 13
alis@@ 13
butler 13
highs 13
ature 13
tso 13
ulating 13
fourteen 13
owning 13
cler@@ 13
sparks 13
commenting 13
manhood 13
hubs 13
recommendation 13
opi@@ 13
harriet 13
glued 13
motor@@ 13
philanthropic 13
disease. 13
404 13
iowa 13
suburb 13
tee@@ 13
researched 13
prophe@@ 13
screen@@ 13
toolbox 13
beads 13
mildly 13
smuggled 13
chron@@ 13
vaccination 13
envi@@ 13
australians 13
sponsors 13
tenths 13
bribery 13
fiercely 13
pickle 13
science. 13
1929 13
buzz@@ 13
resurrection 13
asa@@ 13
mindsets 13
adventurous 13
oppressed 13
retinal 13
scanners 13
transpar@@ 13
brainstorms 13
disti@@ 13
hillis 13
2100 13
contractors 13
separately 13
doing. 13
encies 13
investigator 13
draining 13
seconds. 13
pleas@@ 13
shredded 13
pancreas 13
dragons 13
cheetah 13
calves 13
175 13
paintbrush 13
soluble 13
spor@@ 13
illegally 13
forefront 13
shockingly 13
comfor@@ 13
tasting 13
livable 13
stly 13
toothpaste 13
0s. 13
chan 13
rooftops 13
fractals 13
harris 13
skier 13
beverly 13
hominid 13
think. 13
ration 13
ap 13
yourself. 13
coercion 13
renov@@ 13
tapestry 13
feed@@ 13
arable 13
subordin@@ 13
thereafter 13
refrigerators 13
ligh@@ 13
prece@@ 13
fun. 13
leaps 13
inser@@ 13
bb 13
vali@@ 13
nationalism 13
sided 13
nanoparticle 13
trumpet 13
intellectuals 13
legislative 13
lating 13
acy. 13
recurring 13
lust 13
cremation 13
burma 13
distort 13
harnessing 13
permits 13
sardin@@ 13
greet 13
biomaterials 13
plentiful 13
thunder@@ 13
seymour 13
amazon@@ 13
accord 13
kni@@ 13
critique 13
diner 13
reset 13
italians 13
ities 13
ep 13
ability. 13
popul@@ 13
correction 13
textiles 13
impossible. 13
come. 13
mediocre 13
incra 13
credits 13
mathematica 13
evenings 13
audi@@ 13
yusor 13
train@@ 13
shut@@ 13
pun 13
ase 13
jpl 13
submission 13
immunization 13
res@@ 13
ey@@ 13
ased 13
nuns 13
squat@@ 13
kap@@ 13
kh@@ 13
portra@@ 13
slows 13
capitalists 13
interro@@ 13
disproportionately 13
isolating 13
dragline 13
energized 13
underdog 13
spells 13
herbie 13
hr 13
playwright 13
tokens 13
schwarzschild 13
kanzi 13
vered 13
laureates 13
metaphorically 13
les@@ 13
fireworks 13
laura 13
savior 13
curled 13
ju 13
jn 13
overdose 13
beauti@@ 13
schemes 13
mornings 13
wiping 13
evolu@@ 13
captivity 13
capillary 13
paw 13
km 13
generators 13
dise@@ 13
kathy 13
u.s.-@@ 13
chim@@ 13
pew 13
braille 13
aggregates 13
gravel 13
announcer 13
vation 13
implementing 13
busted 13
forbes 13
mists 13
sear@@ 13
parachu@@ 13
visibly 13
mes. 13
comprehend 13
washes 13
sunglasses 13
dem@@ 13
papaya 13
ng 13
nt 13
livelihood 13
kerry 13
granddaughter 13
aper 13
apex 13
coordinates 13
impro@@ 13
thre@@ 13
outsourcing 13
cafes 13
amphi@@ 13
applaud 13
speculated 13
multiplicity 13
removal 13
fili@@ 13
socialization 13
thal@@ 13
buenos 13
trickle 13
interpersonal 13
town@@ 13
defects 13
outstanding 13
2.3 13
dum 13
pa 13
thered 13
dvds 13
3.3 13
volunteering 13
potassium 13
pottery 13
dissidents 13
growers 13
sore 13
sculptor 13
ath@@ 13
undermining 13
subscribe 13
provinces 13
ocean. 13
thunder 13
bonuses 13
reasons. 13
mayan 13
steroids 13
nirvana 13
grips 13
whaling 13
beck@@ 13
peripheral 13
haters 13
solvable 13
acoustics 13
arma@@ 13
defensive 13
waits 13
eous 13
fermi 13
magnetism 13
abri@@ 13
detached 13
correlate 13
rais@@ 13
lotus 13
psychotherapy 13
mono 13
immuno@@ 13
symbiosis 13
infe@@ 13
cav@@ 13
brigade 13
turbine 13
niger 13
salute 13
reliance 13
ami 13
advertisements 13
mole@@ 13
enrolled 13
uniqueness 13
pledge 13
china. 13
hilarious 13
ome@@ 13
ition 13
eduardo 13
amendment 13
bystander 13
rer 13
approximation 13
550 13
ski@@ 13
stro 13
highlights 13
sincer@@ 13
remorse 13
o.k. 13
exceeds 13
sachs 13
horse@@ 13
presenter 13
churchill 13
territories 13
pasting 13
warps 13
bam@@ 13
santiago 13
rationale 13
friends. 13
cheer@@ 13
podium 13
ism. 13
colossal 13
dominating 13
signaling 13
apprentice 13
biking 13
startups 13
cross@@ 13
sten 13
crowdsourcing 13
popularity 13
everybody. 13
margin@@ 13
canals 13
chant 13
driveway 13
admin 13
will. 13
arized 13
appearances 13
motive 13
simpson 13
socialism 13
pled 13
240 13
gym 13
grilled 13
hide@@ 13
faked 13
kie 13
cada@@ 13
cliche 13
cones 13
gland 13
democrat 13
simultaneous 13
uptake 13
ceramics 13
fer 13
camping 13
orthopedic 13
decomposition 13
decorated 13
appreciating 13
tweeted 13
limit@@ 13
2025 13
ling. 13
oxygen@@ 13
explosives 13
recreation 13
dissection 13
privately 13
marshmallow 13
amira 13
electr@@ 13
kazakhstan 13
divisions 13
stalin 13
infer 13
binoculars 13
numbered 13
ade 13
tailed 13
anthropo@@ 13
groom 13
swings 13
fraught 13
kuwait 13
advising 13
pari@@ 13
predominantly 13
clunky 13
wee@@ 13
exterior 13
positives 13
mounds 13
ped. 13
browne 13
implan@@ 13
iterations 13
eaters 13
ranch 13
kamen 13
axi@@ 13
kittens 13
brass 13
barcelona 13
sentimental 13
outraged 13
inflated 13
bushes 13
wls 13
tedglobal 13
pennies 13
unrealistic 13
timeless 13
interfer@@ 13
vendor 13
tapestries 13
table. 13
wanna 13
individuality 13
polling 13
unconditional 13
flex 13
gasses 13
amed 13
kisses 13
gothic 13
cellphones 13
chuc@@ 13
fertilize 13
gold@@ 13
emul@@ 13
norse 13
marketers 13
untie 13
drying 13
ming. 13
sexism 13
reinvented 13
roller 13
trickster 13
pitt 13
198@@ 13
sponges 13
rebellion 13
groundwater 13
moon@@ 13
g20 13
retar@@ 13
prostitutes 13
whir@@ 13
artifact 13
form@@ 13
remarks 13
subatomic 13
betrayal 13
sprayed 13
annihil@@ 13
baby@@ 13
burglar 13
sau@@ 13
sequest@@ 13
appealed 13
hangers 13
forward. 13
christi@@ 13
blackboard 13
cathe@@ 13
northeastern 13
optimization 13
backing 13
idealistic 13
doh 13
opposing 13
ode 13
ics. 13
popcorn 13
mentary 13
gues 13
jurassic 13
deficits 13
memorizing 13
mosaic 13
terror@@ 13
incompatible 13
pedi@@ 13
gly 13
neutrons 13
books. 13
lag 13
recreational 13
contaminate 13
gating 13
oppose 13
gphin 13
good@@ 13
spear 13
involuntary 13
genoci@@ 13
waf@@ 13
box@@ 13
state@@ 13
dynam@@ 13
paused 13
provision 13
quorum 13
skyscraper 13
knowledgeable 13
earth@@ 13
seatbelts 13
attendant 13
spreadsheet 13
mism 13
perme@@ 13
plausible 13
paleo@@ 13
scen@@ 13
psychosis 13
leveraged 13
barbecue 13
fru@@ 13
lancet 13
circum@@ 13
pursued 13
awa 13
oth 13
schematic 13
gluten 13
segments 13
asis 13
permit 13
whatnot 13
mation 13
chicks 13
singularity 13
zero. 13
stom@@ 13
proof@@ 13
bam 13
governors 13
vari@@ 13
bers 13
sling 13
din 13
alto 13
ult 13
kkm 13
sound@@ 13
remake 13
fragment 13
crocodiles 13
imprisonment 13
auschwitz 13
compliant 13
diesel 13
sergey 13
translations 13
abs 13
wire@@ 13
bleak 13
peaked 13
fading 13
boulder 13
cubes 13
reac@@ 13
triceratops 13
bloo@@ 13
democratization 13
rearrange 13
bean 13
wetland 13
vens 13
ridden 13
frivolous 13
economical 13
blessings 13
plutonium 13
hating 13
rism 13
venue 13
forums 13
musk 13
arthritis 13
cep@@ 13
spectr@@ 13
proteomics 13
velo@@ 13
guinness 13
unicef 13
were. 13
u.@@ 13
ov@@ 13
detained 13
til 13
vanished 13
orangutans 13
fluke 13
tweak 13
modifying 13
ght. 13
odysseus 13
paradoxically 13
orchestr@@ 13
hulk 13
ental 13
leather@@ 13
dire@@ 13
orphans 13
ignores 13
whatever. 13
geos@@ 13
kilo 13
bb@@ 13
imported 13
inward 13
pirates 13
pirated 13
infrastructures 13
eames 13
ideologies 13
violations 13
modifications 13
conquest 13
desi@@ 13
squeezing 13
bosses 13
wildest 13
guru 13
cratic 13
agri@@ 13
1.7 13
grail 13
clogged 13
knob 13
knot 13
pajamas 13
gros@@ 13
ster. 12
intake 12
venti@@ 12
thai 12
boarded 12
ire 12
automate 12
displace 12
cation. 12
captive 12
jerk 12
embark 12
gloomy 12
cooks 12
headset 12
dusty 12
comedians 12
ph.@@ 12
pho@@ 12
memor@@ 12
debilitating 12
heal@@ 12
turn@@ 12
uded 12
natalie 12
weeds 12
brutally 12
syringes 12
bhu@@ 12
understand. 12
wraps 12
indifference 12
remedy 12
pacemaker 12
envelo@@ 12
dickinson 12
camer@@ 12
scatter 12
quarry 12
blogosphere 12
woolly 12
hemispheres 12
euthan@@ 12
contested 12
bothers 12
boar@@ 12
sabbath 12
taway 12
archaeological 12
hack@@ 12
pollute 12
marches 12
righ@@ 12
excite 12
six. 12
stumble 12
skin@@ 12
hololens 12
holo@@ 12
pret@@ 12
duc@@ 12
correspondence 12
tangles 12
titans 12
stain 12
mucus 12
squatter 12
annually 12
lowering 12
barri@@ 12
oli@@ 12
oncologist 12
vision. 12
ffing 12
ny@@ 12
ees 12
swi@@ 12
fol@@ 12
vas@@ 12
legisl@@ 12
fare 12
computations 12
transitions 12
thorium 12
enforced 12
flips 12
multiplying 12
shot@@ 12
kel 12
merry 12
thanked 12
oak 12
rav@@ 12
ere@@ 12
objectively 12
aero@@ 12
dawkins 12
absorbs 12
eth@@ 12
sagan 12
utilities 12
baff@@ 12
quoting 12
valdez 12
scraping 12
rehearsal 12
bedside 12
unconsciously 12
sean 12
imaged 12
deadlines 12
caffeine 12
shareholders 12
lander 12
homicide 12
thylacines 12
malarious 12
reflections 12
rebels 12
idiots 12
evangelical 12
unveil 12
darn 12
unesco 12
cus 12
kinect 12
interacted 12
amplified 12
implicitly 12
beasts 12
j.@@ 12
horns 12
swedes 12
recess 12
starch 12
fukushima 12
gravit@@ 12
anomaly 12
lebanese 12
consumerism 12
cancerous 12
natur@@ 12
curate 12
dwar@@ 12
kiva 12
disciplined 12
democratized 12
deton@@ 12
distributing 12
preventive 12
rocke@@ 12
zil@@ 12
blue@@ 12
botanical 12
incur@@ 12
mus 12
dashboard 12
numerical 12
groundbreaking 12
possessed 12
graded 12
paste@@ 12
cherry 12
rumor 12
renamed 12
fragrance 12
spongy 12
carni@@ 12
chest@@ 12
extraordinary. 12
paper. 12
uncovered 12
fallout 12
prosthesis 12
intolerance 12
acquiring 12
filtering 12
rr@@ 12
weep 12
3,500 12
relied 12
depletion 12
sacks 12
yemeni 12
employing 12
theresa 12
herring 12
á 12
bollywood 12
ckers 12
kins 12
relentless 12
humanoid 12
cautious 12
warmed 12
tice@@ 12
hei@@ 12
tadpole 12
submerged 12
repairability 12
coumarin 12
examination 12
ounded 12
redwoods 12
bonnet 12
cubs 12
banging 12
protesting 12
theatre 12
kind. 12
radiologists 12
tether 12
intentioned 12
ements 12
gauge 12
reversal 12
catadores 12
men. 12
mandatory 12
encapsul@@ 12
genealo@@ 12
pavement 12
sociology 12
phil@@ 12
dotted 12
persecution 12
ottawa 12
vel 12
assertive 12
cherished 12
hides 12
bowling 12
rival 12
robe 12
ud 12
proje@@ 12
claw 12
ae 12
mound 12
cling 12
deeds 12
bilbao 12
rampant 12
99.@@ 12
nope 12
underwent 12
smashing 12
clearance 12
efficiencies 12
none. 12
design. 12
custom@@ 12
summaries 12
manchester 12
exchanged 12
committees 12
tility 12
phy 12
fedex 12
compromising 12
defe@@ 12
bird@@ 12
overestimate 12
lee@@ 12
vie@@ 12
textures 12
dize 12
continual 12
hosted 12
tian 12
tial 12
smoked 12
resemblance 12
dl 12
sourcing 12
packages 12
buffett 12
recurrent 12
wasps 12
antique 12
hiking 12
skydiving 12
offend 12
halt 12
pollin@@ 12
lunches 12
seldom 12
rush@@ 12
bian 12
beau@@ 12
woo@@ 12
nery 12
momentarily 12
shenzhen 12
mp3 12
ver. 12
vert 12
exclude 12
energy. 12
shop@@ 12
ecuador 12
juicy 12
mentoring 12
decipher 12
use. 12
marco 12
oon 12
relocated 12
cist 12
ller 12
blake 12
baxter 12
reacts 12
beg 12
bes 12
12. 12
schul@@ 12
lux 12
interpretations 12
franchise 12
turbulence 12
accountant 12
notices 12
hc 12
overflow 12
eyes. 12
augustine 12
nanny 12
push@@ 12
brief@@ 12
arc@@ 12
abdomen 12
indulge 12
extrovert 12
monolithic 12
aisle 12
deta@@ 12
divinity 12
unleashed 12
meditate 12
stron@@ 12
clinging 12
tombstone 12
athle@@ 12
compulsively 12
burg 12
clever@@ 12
insides 12
vores 12
chel@@ 12
outline 12
terrace 12
oscope 12
coconut 12
jb 12
tum 12
rehabil@@ 12
wisely 12
organizers 12
strawberry 12
manuel 12
importing 12
assessing 12
norm@@ 12
pens 12
handheld 12
shin@@ 12
transitional 12
halved 12
floats 12
priced 12
itors 12
glove 12
britannica 12
denying 12
metho@@ 12
alhambra 12
remark 12
staple 12
oily 12
arranging 12
contempt 12
800,000 12
ignite 12
ren 12
rem 12
rit@@ 12
provoked 12
gical 12
progressing 12
esg 12
dataset 12
1981 12
lau@@ 12
divergent 12
stares 12
gement 12
dizzy 12
rub@@ 12
brushes 12
365 12
nightmares 12
adage 12
extracts 12
towels 12
stent 12
pharmacy 12
stereotype 12
heap 12
bargain 12
nc 12
spectral 12
riot 12
serendipity 12
afterlife 12
aped 12
zu@@ 12
mother@@ 12
tailor 12
colon 12
a.d. 12
journe@@ 12
oks 12
spl@@ 12
goofy 12
oc 12
medicare 12
amber 12
descartes 12
1908 12
days. 12
stun@@ 12
categor@@ 12
sliver 12
advisers 12
inse@@ 12
translators 12
stad@@ 12
bee@@ 12
sex. 12
heim 12
1,300 12
villain 12
straps 12
saddest 12
dorothy 12
weighing 12
cesses 12
elevators 12
saddle 12
specially 12
eligible 12
bud@@ 12
baggage 12
orally 12
snap@@ 12
cams 12
typ@@ 12
birmingham 12
creed 12
respectable 12
telegraph 12
15. 12
breadth 12
skate 12
sigh 12
scratched 12
tore 12
tor. 12
oped 12
astrolabe 12
inequalities 12
endured 12
missiles 12
barbed 12
barber 12
haryana 12
rescuing 12
mast 12
tc 12
salamander 12
nugget 12
plotting 12
unsafe 12
tata 12
beforehand 12
affordability 12
phal@@ 12
raced 12
rebecca 12
palo 12
skycar 12
yelled 12
tremor 12
rack 12
licenses 12
holmes 12
oping 12
antibody 12
writ 12
finger@@ 12
kickstarter 12
regulators 12
deceptive 12
brine 12
negotiated 12
econom@@ 12
hies 12
warner 12
vein 12
whack 12
crunch 12
zeroes 12
validated 12
nett 12
bana 12
glan@@ 12
real. 12
headlights 12
omics 12
plat@@ 12
instruc@@ 12
shaming 12
transgendered 12
freezes 12
1956 12
xi 12
carson 12
x. 12
magnesium 12
expand@@ 12
stained 12
23,000 12
obvi@@ 12
transmitting 12
ethos 12
leftover 12
soundscape 12
tendencies 12
figur@@ 12
thatcher 12
virgins 12
microseconds 12
set. 12
taxpayer 12
unnatural 12
persuading 12
kay 12
biom@@ 12
reminiscent 12
pus@@ 12
score@@ 12
plummeted 12
spotting 12
spra@@ 12
byproduct 12
classics 12
hose 12
hydro 12
wis@@ 12
molten 12
legends 12
farmland 12
paved 12
ati@@ 12
tbp 12
watershed 12
jag@@ 12
tiest 12
bundle 12
imperial 12
vase 12
warp 12
ises 12
gaddafi 12
impending 12
dreamt 12
horri@@ 12
hypothe@@ 12
resourceful 12
aspirin 12
deceive 12
wishing 12
ethically 12
carbon@@ 12
ascent 12
cious 12
class@@ 12
tedious 12
jackie 12
lease 12
pod 12
dividends 12
cros@@ 12
rela@@ 12
necks 12
ograp@@ 12
frederick 12
hill@@ 12
finishes 12
skating 12
clip@@ 12
scriptures 12
ctional 12
lifesaver 12
wonder@@ 12
beeps 12
donnell 12
preconceived 12
scho@@ 12
gis 12
gig 12
gic 12
faithful 12
krill 12
tes@@ 12
pediatric 12
wagon 12
oasis 12
tists 12
shirley 12
rene 12
vacu@@ 12
50. 12
sediments 12
lif@@ 12
heather 12
parable 12
weaknesses 12
shadi 12
contra@@ 12
kha@@ 12
pipelines 12
moist 12
eruption 12
alliances 12
itary 12
throwaway 12
porridge 12
spoon 12
detects 12
oranges 12
rockett 12
interplay 12
academically 12
petrol 12
sund@@ 12
onto@@ 12
audience. 12
our@@ 12
feel@@ 12
coincidentally 12
kens 12
contracting 12
encountering 12
atm 12
gilbert 12
shalt 12
emailing 12
unexpectedly 12
substitu@@ 12
dissect 12
simul@@ 12
tenberg 12
riley 12
br 12
quity 12
assa@@ 12
numer@@ 12
thetic 12
sao 12
prestigious 12
otic 12
suppressed 12
stationary 12
accents 12
d.@@ 12
ising 12
prophets 12
rhex 12
pollock 12
alls 12
sie@@ 12
vulnerabilities 12
colliding 12
tation. 12
prospects 12
silenced 12
sleeves 12
ularly 12
aerospace 12
modernity 12
coldest 12
dow@@ 12
undertaking 12
traced 12
colonize 12
fund@@ 12
ety 12
puff 12
belgium 12
carcinogens 12
balli@@ 12
kurzweil 12
face@@ 12
criticizing 12
crackers 12
compulsive 12
cites 12
triggering 12
pascal 12
fellowship 12
techno 12
swims 12
analytics 12
taxi@@ 12
peacefully 12
islamists 12
tedx@@ 12
deple@@ 12
saltwater 12
grapefruit 12
fabricated 12
prairie 12
posing 12
kant 12
bbling 12
angular 12
untold 12
wingspan 12
ramp 12
enjoyment 12
malcolm 12
symbolism 12
enhancement 12
retention 12
trainer 12
visicalc 12
reservoir 12
albums 12
sentenced 12
attribu@@ 12
foreman 12
habitu@@ 12
aya 12
nan 12
rick@@ 12
interplanetary 12
pathogen 12
colonized 12
terence 12
updates 12
brah@@ 12
malleable 12
eves 12
calf 12
ecstasy 12
unfolds 12
start. 12
nighttime 12
reddit 12
stimuli 12
anders 12
ills 12
notorious 12
lyn@@ 12
influencing 12
bolivia 12
handi@@ 12
apology 12
bay@@ 12
sour 12
piloted 12
undoubtedly 12
crane 12
bren@@ 12
notable 12
preoccupied 12
ranger 12
tual 12
ry. 12
bully 12
hea@@ 12
microfinance 12
mistakenly 12
cade 12
chester 12
hopped 12
devils 12
jitney 12
gies 12
hit@@ 12
deputy 12
serif 12
lim@@ 12
joey 12
britney 12
exhilaration 12
brac@@ 12
dinners 12
dah 12
insisting 12
stupi@@ 12
rectangular 12
inspector 12
samantha 12
.d. 12
somali 12
qualitative 12
heed 12
corpse 12
sburg 12
rist 12
slaughtered 12
oste@@ 12
mes@@ 12
terabytes 12
comprehension 12
1.8 12
steadily 12
difference. 12
tric 12
ring@@ 12
1948 12
drown 12
dialed 12
ferry 12
inheritance 12
lagoon 12
retreating 12
suspend 12
ts@@ 12
pencils 12
siveness 12
dreadnoughtus 12
weakened 12
xing 12
hopelessness 12
contradi@@ 12
music. 12
refresh 12
causality 12
viagra 12
collateral 12
ara 12
cleverly 12
blow@@ 12
amidst 12
deal. 12
daycare 12
weeping 12
0.2 12
theo@@ 12
ventures 12
sians 12
idi@@ 12
hovering 12
counteract 12
localized 11
deliberation 11
seven. 11
feasibility 11
inanimate 11
uplifting 11
climber 11
26@@ 11
allan 11
120,000 11
self. 11
í 11
4.5 11
muck 11
clustered 11
improvised 11
other@@ 11
aboard 11
anymore. 11
uninterrupted 11
zoe 11
buffet 11
oppos@@ 11
curaçao 11
shutter 11
911 11
tigh@@ 11
pig@@ 11
brotherhood 11
dwel@@ 11
i.@@ 11
optimi@@ 11
bonded 11
statisticians 11
universality 11
decor@@ 11
alive. 11
thfully 11
imperfections 11
amphibians 11
vow 11
politely 11
defin@@ 11
aa@@ 11
harnessed 11
suppression 11
broaden 11
panicked 11
upstate 11
mute 11
even@@ 11
gence 11
shrinks 11
pel@@ 11
administered 11
wee 11
wel 11
grids 11
ely. 11
fragmentation 11
tossed 11
tosses 11
thermo@@ 11
compares 11
rough@@ 11
nursery 11
test@@ 11
summarized 11
tain@@ 11
king@@ 11
society. 11
routines 11
smu@@ 11
judith 11
avi@@ 11
countries. 11
reciprocal 11
fuss 11
righteous 11
permafrost 11
igh@@ 11
forging 11
abyte 11
nod 11
inversion 11
thankful 11
prompted 11
glaze 11
hybrids 11
admi@@ 11
scum 11
kri@@ 11
maternity 11
disproportionate 11
laundering 11
1850 11
nuggets 11
dat@@ 11
queensland 11
stockpile 11
ferocious 11
earns 11
apocalypse 11
footnote 11
aired 11
quez 11
financing 11
abruptly 11
mobs 11
disseminate 11
fear. 11
watered 11
notwithstanding 11
radicals 11
anesthesi@@ 11
filament 11
ink@@ 11
randomized 11
mountaintop 11
sheriff 11
ashley 11
a.@@ 11
tles 11
linus 11
pointless 11
urging 11
mel 11
weirdly 11
breath@@ 11
clin@@ 11
windshield 11
caterpillar 11
evaporated 11
grind 11
faiza 11
interruptions 11
crossroads 11
incorporating 11
shattering 11
potenti@@ 11
reformation 11
parenthood 11
landers 11
stabilizing 11
adviser 11
proposals 11
rug 11
labyrinth 11
dennis 11
unaids 11
waiter 11
foreigner 11
untapped 11
acies 11
synagogue 11
consisted 11
nas 11
readings 11
archae@@ 11
zers 11
business@@ 11
stubborn 11
synchronized 11
prejudices 11
tional. 11
gigabytes 11
showers 11
facts. 11
charm 11
fused 11
fuses 11
organically 11
cub 11
delegation 11
trip@@ 11
motivational 11
ands 11
bail 11
reciprocity 11
aur@@ 11
85,000 11
allied 11
precipice 11
pave 11
rup@@ 11
prosecu@@ 11
philippe 11
overheard 11
gapminder 11
hex@@ 11
401 11
alec 11
cements 11
screws 11
billi@@ 11
commercialization 11
constan@@ 11
rodent 11
congregation 11
emphasized 11
casey 11
informs 11
alli@@ 11
priesthood 11
yum 11
turf 11
drastically 11
barbaric 11
cas9 11
bodied 11
wol@@ 11
googled 11
free. 11
culture. 11
serra 11
jew 11
tural 11
atom@@ 11
budapest 11
supersti@@ 11
stee@@ 11
issu@@ 11
lifeless 11
tenfold 11
demobi@@ 11
pours 11
unbearable 11
pupils 11
accountants 11
feat 11
scrutiny 11
underpin@@ 11
ultra@@ 11
agonizing 11
stub@@ 11
squirrel 11
interdependent 11
dorm 11
bumblebees 11
cam@@ 11
fifths 11
preferably 11
modulation 11
ready. 11
vibr@@ 11
retaining 11
hungary 11
adaptations 11
presidency 11
exter@@ 11
said. 11
articulated 11
rezero 11
crutches 11
yers 11
freaks 11
gigawatts 11
begin@@ 11
negoti@@ 11
paraly@@ 11
najmuddin 11
repaired 11
interactivity 11
artworks 11
stle 11
manife@@ 11
refining 11
caroline 11
dives 11
mecca 11
spectroscopy 11
ante 11
maj@@ 11
combines 11
brow 11
putin 11
flocks 11
kerala 11
amputation 11
fringes 11
exhal@@ 11
angel@@ 11
torso 11
slang 11
situated 11
fraser 11
darling 11
qua@@ 11
head. 11
khal@@ 11
avoidance 11
judicial 11
nanoscale 11
prosecuted 11
tidal 11
archaic 11
robot. 11
outwards 11
shabaab 11
ave@@ 11
debts 11
ences. 11
recreating 11
soar 11
lloyd 11
twee@@ 11
lush 11
sargassum 11
indign@@ 11
bigotry 11
contrac@@ 11
electrically 11
andre@@ 11
packard 11
messi@@ 11
aka 11
elegantly 11
deplo@@ 11
doable 11
chronically 11
tained 11
councils 11
pigments 11
sliding 11
db 11
1971 11
plasma 11
liminal 11
webs 11
accordingly 11
encoder 11
circulatory 11
healthiest 11
liability 11
bankrupt 11
rugged 11
ssions 11
kiki 11
justified 11
epoch 11
hover 11
gos@@ 11
stealth 11
tax@@ 11
technologies. 11
move. 11
mp. 11
grin@@ 11
rudimentary 11
chunky 11
endo@@ 11
atable 11
kindle 11
perfume 11
assistants 11
notoriously 11
transcripts 11
rulers 11
haunting 11
microcredit 11
rub 11
ceremonies 11
gm 11
aris 11
collins 11
huxley 11
halloween 11
lled 11
metabo@@ 11
lunch@@ 11
sson 11
updating 11
probiotics 11
plugging 11
demise 11
willpower 11
salman 11
janeiro 11
exploiting 11
suff@@ 11
nonverbal 11
prozac 11
hm 11
nel 11
spouses 11
tele 11
inhabited 11
enclosure 11
ducts 11
exported 11
mobilized 11
skim 11
billionaire 11
shatter 11
dwelling 11
chal@@ 11
unethical 11
wiki 11
blurred 11
magna 11
jk 11
sig@@ 11
breton 11
conor 11
amazes 11
imprint 11
second. 11
mesmer@@ 11
neurotransmitters 11
democratize 11
eda 11
ggy 11
mourning 11
fantasies 11
drained 11
bloop 11
cemeteries 11
sprink@@ 11
stewards 11
sitcom 11
opia 11
restart 11
heter@@ 11
deni@@ 11
adversaries 11
one@@ 11
neutrality 11
campuses 11
bachelor 11
tresses 11
voca@@ 11
slipping 11
rey 11
child. 11
eyebrow 11
insidious 11
ggle 11
likable 11
bycatch 11
fusiform 11
kidnapping 11
hospitable 11
ander 11
predictor 11
firefighter 11
bud 11
dispersants 11
ml 11
fied. 11
ented 11
reformers 11
plaster 11
torque 11
socio 11
elegance 11
nonprofits 11
carto@@ 11
testable 11
openings 11
fluctu@@ 11
newcastle 11
geneticist 11
recharge 11
inland 11
trinidad 11
room@@ 11
realism 11
splashy 11
usion 11
way@@ 11
deported 11
polo 11
runaway 11
muscular 11
ion@@ 11
ov 11
detectable 11
voids 11
stereotyp@@ 11
hesitation 11
communicable 11
infects 11
scand@@ 11
junction 11
nailed 11
pt 11
instru@@ 11
ctor 11
usb 11
gau@@ 11
gly@@ 11
compositions 11
drastic 11
blooms 11
rous 11
disparities 11
unison 11
interrogation 11
architec@@ 11
presume 11
virginity 11
earthly 11
coccus 11
owens 11
sail@@ 11
clusive 11
rotated 11
handshake 11
eco@@ 11
benefiting 11
catap@@ 11
possum 11
blinding 11
isabel 11
anyways 11
anyway. 11
handouts 11
arsen@@ 11
corrosive 11
vivian 11
heh 11
fours 11
sensibility 11
tu 11
wid@@ 11
imminent 11
seoul 11
adher@@ 11
generalized 11
banner 11
stigma@@ 11
hyperactivity 11
knitting 11
jam@@ 11
toler@@ 11
lima 11
beatboxing 11
mitochondrial 11
poaching 11
empathy. 11
libby 11
darwinism 11
dispose 11
docs 11
betty 11
sad@@ 11
serenity 11
correlations 11
observable 11
dir@@ 11
vain 11
cedar 11
sketching 11
pinch 11
bubbling 11
alligator 11
hectare 11
connectedness 11
motorized 11
quieter 11
miserably 11
logi@@ 11
viking 11
obi 11
mutates 11
anew 11
havoc 11
illustrations 11
roaring 11
esp@@ 11
shooter 11
robicsek 11
1958 11
amusement 11
canceled 11
intelligently 11
klu@@ 11
lou 11
reliability 11
constra@@ 11
turbo 11
disper@@ 11
arsenal 11
ordin@@ 11
nch 11
nesian 11
mach 11
hips 11
trachoma 11
poisoned 11
m.@@ 11
dame 11
loom 11
predictability 11
honors 11
nameless 11
bakers 11
byproducts 11
distor@@ 11
filthy 11
rash 11
outsiders 11
yay 11
canadians 11
corexit 11
irrever@@ 11
gillian 11
jin@@ 11
synthesizer 11
treat@@ 11
erik 11
grandkids 11
gorillas 11
hansen 11
then. 11
plantation 11
iser 11
niches 11
naughty 11
reassure 11
submersibles 11
hallucination 11
mili@@ 11
publi@@ 11
anthrax 11
impati@@ 11
aunts 11
agreeing 11
proscenium 11
mussels 11
mal 11
scot@@ 11
unleash 11
brainer 11
ancies 11
quran 11
org 11
consortium 11
roy@@ 11
main@@ 11
oid 11
parody 11
crafting 11
nonviolence 11
euph@@ 11
alberto 11
micrornas 11
leonard 11
mortem 11
categorized 11
deepening 11
cameroon 11
redee@@ 11
chatter 11
sociologist 11
flux 11
brent 11
verbally 11
harassed 11
jar@@ 11
spacing 11
dissonance 11
iii 11
thrill 11
filmmaking 11
fluctuation 11
ralph 11
hedon@@ 11
flan@@ 11
stainless 11
serbia 11
legislators 11
remoteness 11
century. 11
company. 11
decreasing 11
prostheses 11
shadowy 11
correctness 11
stacey 11
1966 11
sage 11
glider 11
buckminster 11
twi@@ 11
kelp 11
skulls 11
tho@@ 11
companions 11
advancements 11
subsidize 11
stomachs 11
handles 11
shed. 11
procrastinators 11
geeky 11
unarmed 11
oscill@@ 11
i.m. 11
unpaid 11
giver 11
oath 11
probes 11
hedge 11
eless 11
empathetic 11
buds 11
internalized 11
pts 11
overload 11
chaplain 11
pong 11
turnover 11
poachers 11
swo@@ 11
lization 11
announ@@ 11
martha 11
interrogate 11
annie 11
evaluated 11
polymers 11
hallmark 11
ache 11
tire@@ 11
patriot 11
dismal 11
testi@@ 11
corrupted 11
traders 11
stove 11
flower@@ 11
stere@@ 11
i.e. 11
nickel 11
recline 11
lightbulb 11
accra 11
empowers 11
wester@@ 11
hoc 11
revisit 11
need@@ 11
manipul@@ 11
eradicating 11
gator 11
argent@@ 11
fast. 11
deri@@ 11
green. 11
klein 11
greens 11
parallels 11
personalize 11
unprotected 11
blending 11
dige@@ 11
templates 11
annan 11
understandably 11
veterinary 11
stap@@ 11
residual 11
exaggerated 11
spati@@ 11
distill 11
roadside 11
marlene 11
adept 11
airlines 11
reck@@ 11
pundits 11
brits 11
futile 11
iti 11
snowball 11
tunisian 11
fted 11
move@@ 11
cau@@ 11
abra@@ 11
dictated 11
phen@@ 11
lost. 11
ket@@ 11
timely 11
ods 11
india. 11
harsh@@ 11
ves@@ 11
popularized 11
enlist 11
intervening 11
insufficient 11
billionth 11
ition. 11
spooky 11
lux@@ 11
curvature 11
ounds 11
empha@@ 11
shameful 11
rewrite 11
nephew 11
onboard 11
centrifu@@ 11
inhibit 11
brake 11
perimeter 11
repository 11
gatherers 11
exciting. 11
standar@@ 11
peninsula 11
unex@@ 11
shan@@ 11
menstrual 11
border@@ 11
autos 11
courtship 11
occupations 11
whipped 11
outsource 11
privatization 11
premi@@ 11
bandura 11
eurozone 11
apathy 11
bombarded 11
gayla 11
effe@@ 11
lolcats 11
biodegradable 11
pixar 11
expansive 11
wu@@ 11
tick@@ 11
insecticides 11
tened 11
invisible. 11
centr@@ 11
delights 11
gs. 11
pierre 11
id. 11
objection 11
nap 11
restrained 11
hallways 11
plantations 11
soli@@ 11
deliver@@ 11
catastrophes 11
configurations 11
dentists 11
moni@@ 11
moder@@ 11
alleged 11
pcbs 11
behavior. 11
uncontacted 11
orphan 11
t.v. 11
grappling 11
ample 11
offset 11
buttermilk 11
afghans 11
eyebrows 11
orb 11
blindfold 11
damascus 11
mistrust 11
concussion 11
confronting 11
comra@@ 11
vanity 11
220 11
nylon 11
drawer 11
american. 11
moderator 11
keyboards 11
grants 11
gripped 11
nutri@@ 11
yi@@ 11
community. 11
whites 11
squash 11
casts 11
craftsmen 11
tle@@ 11
cystic 11
atari 11
shard 11
dee@@ 11
bathed 11
expon@@ 11
zer@@ 11
pou@@ 11
ripple 11
hugging 11
marathons 11
ydi@@ 11
nings 11
kites 11
shoved 11
restrictive 11
invading 11
kath@@ 11
odor@@ 11
fea@@ 11
lent 11
transplanted 11
yielded 11
bombers 11
austrian 11
dar 11
fron@@ 11
ig@@ 11
after@@ 11
routing 11
sexes 11
fostering 11
technologist 11
bumblebee 11
absorption 11
neo@@ 11
8th 11
parrot 11
used. 11
mush 11
allison 11
appropri@@ 11
inhibit@@ 11
abandoning 11
educator 11
parting 11
gogh 11
karen 11
cousteau 11
functionally 11
booking 11
admiration 11
1940 11
1947 11
exist@@ 11
say. 11
clone 11
electrified 11
molded 11
tornado 11
chair@@ 11
viewpoint 11
postage 11
distilled 11
graphers 11
contributors 11
nbc 11
popu@@ 11
supplements 11
stics 11
bron@@ 11
explodes 11
dant 11
&apos;s. 11
barn 11
supre@@ 11
johannes 11
ris 11
metic 11
attac@@ 11
shortcuts 11
grouper 11
fluorescence 11
magnifying 11
procession 11
iest 11
rabbis 11
metastases 11
tas 11
segregated 11
admir@@ 11
endemic 11
interse@@ 11
affili@@ 11
centre 11
spoil 11
illu@@ 11
unhappiness 11
lli@@ 11
breaker 11
ska 11
taxpayers 11
throne 11
pods 11
stereotypical 10
piz@@ 10
nature. 10
locker 10
honeybee 10
simp@@ 10
memoir 10
osity 10
libyan 10
pyg@@ 10
disrup@@ 10
commodi@@ 10
barcode 10
aded 10
oneness 10
mbs 10
humbled 10
osh 10
incrementally 10
prefer@@ 10
thanking 10
paleontologists 10
tulu 10
proactive 10
transp@@ 10
nathaniel 10
ssed. 10
otto 10
wholeness 10
superintendent 10
averse 10
rags 10
abuses 10
gratuitous 10
formulation 10
natalia 10
9.@@ 10
sch 10
prohibi@@ 10
twisting 10
tedness 10
guarding 10
civilized 10
faul@@ 10
8,@@ 10
averaging 10
sted. 10
dieting 10
greener 10
chlorop@@ 10
contributor 10
chap 10
turnaround 10
dson 10
rods 10
couchsurfing 10
thigh 10
deduc@@ 10
prosper 10
spilling 10
deficiency 10
placement 10
dot@@ 10
team@@ 10
parag@@ 10
sirna 10
gambling 10
pier 10
nicest 10
exaggerate 10
vish@@ 10
abusing 10
phon@@ 10
feu@@ 10
lucas 10
hologram 10
giraffes 10
cara@@ 10
rung 10
turmoil 10
misguided 10
florence 10
cons 10
sousa 10
fen@@ 10
insensitive 10
gentler 10
sociable 10
bangs 10
uphill 10
cies 10
same. 10
symbolized 10
replay 10
thirst 10
beac@@ 10
dependencies 10
nile 10
renewed 10
nucleic 10
1858 10
fractures 10
illustrator 10
cabinets 10
housework 10
moonlight 10
h.@@ 10
surpassed 10
house. 10
testify 10
spitting 10
affirmative 10
kara 10
psychop@@ 10
wy@@ 10
handbags 10
ure@@ 10
janitors 10
evocative 10
acceler@@ 10
23@@ 10
graphically 10
upsetting 10
advis@@ 10
subtraction 10
warcraft 10
survi@@ 10
alan@@ 10
indo 10
underpins 10
kew 10
situ@@ 10
cene 10
riverside 10
overlay 10
honduras 10
strawberries 10
invasively 10
affli@@ 10
troll 10
foil 10
swat 10
fists 10
recapit@@ 10
immunized 10
niche 10
downsides 10
forwar@@ 10
punctuated 10
ginger 10
breathes 10
teenth 10
troop 10
humanly 10
detrimental 10
unpopular 10
marduk 10
yep 10
sailors 10
education. 10
factions 10
holly 10
stripping 10
relieve 10
hijacked 10
forensics 10
dwarf 10
cranial 10
respect@@ 10
spreadsheets 10
markings 10
manifesto 10
bailout 10
romans 10
funky 10
atingly 10
allegedly 10
modality 10
governs 10
sci@@ 10
statesmen 10
fana@@ 10
residue 10
swamps 10
stir 10
skill@@ 10
hundredth 10
razor 10
spee@@ 10
merged 10
spiked 10
ctomy 10
ravaged 10
palmp@@ 10
muc@@ 10
resisted 10
&apos;am 10
further. 10
fibrosis 10
marrying 10
cum 10
consulted 10
ellen 10
overlooking 10
presently 10
hydr@@ 10
cas@@ 10
preschool 10
vulner@@ 10
uv@@ 10
altos 10
thicker 10
kaluza 10
adje@@ 10
transplantation 10
swimmer 10
exceedingly 10
jen@@ 10
ipcc 10
dry@@ 10
crumbs 10
smokers 10
dil@@ 10
nec@@ 10
rodents 10
color. 10
absorbent 10
warehouses 10
tress 10
tactic 10
ahh 10
contests 10
flushed 10
1800 10
inverse 10
shootings 10
and. 10
utero 10
objec@@ 10
extroverted 10
enigma 10
mber 10
mbed 10
spacex 10
zeitgeist 10
featuring 10
reshape 10
abstractions 10
tethered 10
affluence 10
albatross 10
libertarian 10
holograms 10
lucifer 10
retinas 10
hopelessly 10
entirety 10
contextual 10
reimagining 10
plur@@ 10
consolation 10
refuses 10
youthful 10
entitlement 10
authored 10
squirt 10
steeped 10
medina 10
icities 10
theorist 10
language. 10
blender 10
farm@@ 10
imper@@ 10
cocoon 10
acknowledgment 10
650 10
pretzels 10
businesspeople 10
stries 10
ground. 10
slow@@ 10
tactical 10
grandmaster 10
ting@@ 10
struc@@ 10
geoffrey 10
trenches 10
blun@@ 10
kinda 10
coupling 10
reconc@@ 10
ruthless 10
avert 10
jasmine 10
ó@@ 10
artillery 10
organizer 10
lindbergh 10
ng@@ 10
oceanic 10
dents 10
chill 10
top. 10
plight 10
complex. 10
deathbed 10
quiz@@ 10
stupidity 10
matcher 10
revised 10
disguised 10
.a. 10
lurking 10
entom@@ 10
oceanographic 10
clones 10
bilingu@@ 10
herbs 10
vomiting 10
dennett 10
overwhelm 10
sec 10
elevates 10
spark@@ 10
muff@@ 10
sanity 10
swirl 10
frees 10
inferences 10
okapi 10
cancel@@ 10
banal 10
institu@@ 10
sharon 10
soak 10
nish 10
koff 10
dusk 10
adri@@ 10
crisp 10
lith@@ 10
volvo 10
cyberspace 10
harb@@ 10
volu@@ 10
fractions 10
dubbed 10
tricked 10
inci@@ 10
remission 10
thee 10
anga 10
incorporated 10
nurtured 10
futu@@ 10
rati@@ 10
subtly 10
lemonade 10
cot 10
petty 10
lyndon 10
1972 10
alchemy 10
depri@@ 10
productions 10
oted 10
veterinarian 10
handmade 10
jiha@@ 10
rectangles 10
responders 10
unsure 10
lending 10
jan 10
gathers 10
breeds 10
endgame 10
won. 10
feats 10
sanc@@ 10
sublime 10
world@@ 10
impairment 10
homegrown 10
unmarried 10
gian 10
gowanus 10
subli@@ 10
downward 10
conserva@@ 10
aber@@ 10
flattened 10
ner. 10
expos@@ 10
vera 10
shoul@@ 10
aspirational 10
celine 10
finer 10
ast 10
pup 10
airborne 10
aristocracy 10
sensual 10
makoko 10
sacrificed 10
mock@@ 10
erupting 10
terminator 10
rum 10
consultation 10
spectators 10
evenly 10
arid 10
g8 10
dilute 10
vs. 10
fostered 10
diagonal 10
succeeds 10
ethan 10
joys 10
theat@@ 10
deposits 10
bullshit 10
sonic 10
definitive 10
straws 10
dred 10
polis 10
mistress 10
childcare 10
alban@@ 10
excavate 10
ogen@@ 10
for. 10
distr@@ 10
morphology 10
primes 10
75,000 10
humanistic 10
regeneration 10
swore 10
preaching 10
socialized 10
conduc@@ 10
oscopy 10
haz@@ 10
jm 10
forecasting 10
odyssey 10
booming 10
sug@@ 10
passports 10
verted 10
invariably 10
talk. 10
hewlett 10
corre@@ 10
phytoplankton 10
aperture 10
adver@@ 10
sanctity 10
kwa@@ 10
suppressing 10
whitney 10
arenas 10
itch 10
infused 10
halve 10
dmca 10
sneakers 10
thighs 10
chanting 10
gambia 10
consequently 10
homemade 10
adjusting 10
prevail 10
granular 10
wall@@ 10
baskets 10
crick 10
azz@@ 10
awesome. 10
hurdle 10
tidy 10
bernard 10
tuous 10
freeman 10
fetal 10
fab@@ 10
billion. 10
weaponry 10
marimba 10
missionary 10
weddings 10
md 10
entertained 10
prioritizing 10
thermo 10
cooperating 10
resili@@ 10
46@@ 10
spade 10
opted 10
satis@@ 10
concep@@ 10
prosecutors 10
lations. 10
laborers 10
preceding 10
displaying 10
journalistic 10
correspon@@ 10
nodding 10
soaring 10
dium 10
profici@@ 10
hospit@@ 10
boyle 10
reboxetine 10
tious 10
appar@@ 10
ction@@ 10
o2 10
attenu@@ 10
reinforcing 10
ox 10
illuminated 10
soprano 10
ouring 10
griev@@ 10
plex 10
nonlinear 10
emaker 10
gigawatt 10
proverbial 10
formulate 10
rails 10
goldman 10
2.6 10
pi 10
macintosh 10
boko 10
percentile 10
faso 10
fries 10
gratifying 10
ckets 10
pasta 10
estimating 10
investor 10
ice@@ 10
enormity 10
willful 10
fting 10
futuristic 10
propensity 10
1953 10
onian 10
rose@@ 10
wool@@ 10
form. 10
sectarian 10
urged 10
thering 10
owl 10
appy 10
bosnian 10
quadruple 10
disturb 10
sailed 10
dignified 10
rf 10
livelihoods 10
landmark 10
dummy 10
resigned 10
excited. 10
mosses 10
anat@@ 10
anticipating 10
damages 10
mine@@ 10
device. 10
theaters 10
collage 10
fuc@@ 10
prosecutor 10
ordinarily 10
ographic 10
experiment. 10
backside 10
iterative 10
undesirable 10
bit. 10
impractical 10
coats 10
peacekeeping 10
masse 10
backyards 10
parasitic 10
orchids 10
presumption 10
masa 10
swar@@ 10
craw@@ 10
matthieu 10
termed 10
carri@@ 10
tembererana 10
habit@@ 10
p.@@ 10
sprint 10
graceful 10
kra@@ 10
hawk 10
learning. 10
65,000 10
freeing 10
devotion 10
chainsaw 10
outside. 10
bathtub 10
vi 10
sity 10
whistled 10
chrome 10
valuation 10
dotcom 10
agony 10
woken 10
payback 10
alexis 10
isms 10
instill 10
vene@@ 10
bunny 10
hispanic 10
conservationists 10
accepts 10
idio@@ 10
topped 10
ums 10
nage 10
18,000 10
sewer 10
nonstop 10
wling 10
pediatri@@ 10
1954 10
contentious 10
saints 10
deployments 10
leum 10
overview 10
wealthiest 10
anecdotal 10
fiable 10
unraveling 10
nanometer 10
mafia 10
somerset 10
drains 10
jab@@ 10
winter@@ 10
otherness 10
frankenstein 10
squee@@ 10
actress 10
yuck 10
greenpeace 10
thr@@ 10
.org. 10
yv 10
lab. 10
won@@ 10
vering 10
kas 10
paranoia 10
assaulted 10
exer@@ 10
saws 10
skyrocketing 10
migratory 10
smelly 10
phenotyp@@ 10
wig 10
hardened 10
lettuces 10
burkina 10
rigor 10
opper 10
invi@@ 10
enting 10
vis@@ 10
allevi@@ 10
motivator 10
breeders 10
week. 10
kier 10
gradient 10
predispos@@ 10
jurisdiction 10
nau@@ 10
connective 10
una 10
commemor@@ 10
pha@@ 10
protestant 10
facilitator 10
orph@@ 10
iters 10
itative 10
petersburg 10
crowdsource 10
bruises 10
mz 10
whis@@ 10
thresholds 10
months. 10
zurich 10
9,@@ 10
shipyard 10
maui 10
parental 10
bicy@@ 10
adjustments 10
pups 10
equival@@ 10
hang@@ 10
deed 10
eliot 10
mediums 10
cken 10
arias 10
childish 10
sby 10
allocation 10
reinforces 10
inhibits 10
leash 10
diamonds. 10
rosie 10
nashville 10
replaces 10
humorous 10
rhyme 10
conceit 10
cybercrime 10
boxing 10
contex@@ 10
bins 10
aters 10
jabbar 10
cycled 10
villa@@ 10
aking 10
elabor@@ 10
incentivize 10
bah@@ 10
stray 10
usi@@ 10
week@@ 10
ernest 10
kilowatt 10
aloud 10
vity 10
underside 10
motel 10
connectomes 10
appeals 10
feedbacks 10
scription 10
hour. 10
ankle 10
prego 10
1964 10
ennial 10
strategi@@ 10
majestic 10
simplification 10
butch@@ 10
chechnya 10
git 10
cylinders 10
shove 10
credited 10
helvetica 10
sheds 10
viol@@ 10
paramount 10
pocke@@ 10
que@@ 10
generative 10
generalization 10
fracture 10
inks 10
densely 10
inspe@@ 10
lexicograp@@ 10
conductors 10
success@@ 10
oria 10
jeep 10
informing 10
sexi@@ 10
words. 10
biochemistry 10
pres@@ 10
beyoncé 10
tadpoles 10
fiel@@ 10
intervened 10
recl@@ 10
notch 10
juliano 10
publicity 10
choreographer 10
java 10
basi@@ 10
eni@@ 10
anesthe@@ 10
cheek 10
avatars 10
women. 10
interven@@ 10
surfers 10
evils 10
outputs 10
patrol 10
oba@@ 10
sip 10
invitations 10
feast 10
plural 10
vacations 10
latitudes 10
cracking 10
turer 10
ture. 10
kilo@@ 10
sparking 10
doughnut 10
detergent 10
epidemiology 10
cargill 10
val 10
experimentally 10
orable 10
chassis 10
telecom 10
ddling 10
borne 10
sacrificing 10
30th 10
pollu@@ 10
rehearse 10
antic@@ 10
vectors 10
silos 10
latte 10
darkened 10
conveying 10
ples 10
worthiness 10
shim@@ 10
dless 10
afternoons 10
sar 10
lifespans 10
condi@@ 10
skyline 10
residence 10
grumpy 10
tha@@ 10
tina 10
texted 10
ado@@ 10
biofluore@@ 10
guar@@ 10
associ@@ 10
sweetness 10
waterways 10
epileptic 10
paraplegic 10
snea@@ 10
acutely 10
brewing 10
approve 10
sweetheart 10
mly 10
picky 10
boltzmann 10
stuart 10
aton 10
resign 10
depiction 10
retreated 10
negatively 10
ons. 10
rubbing 10
unravel 10
recorders 10
omy 10
isotopes 10
homosexual 10
dilu@@ 10
asymmetrical 10
dark@@ 10
idol 10
age@@ 10
dismantle 10
colonialism 10
rotterdam 10
eclipse 10
recognizable 10
ella 10
guesswork 10
tackled 10
humanism 10
hyp@@ 10
millionth 10
convictions 10
nia 10
revolution@@ 10
vapor@@ 10
1902 10
termin@@ 10
trophy 10
mt. 10
squea@@ 10
mta 10
metaphysical 10
conserved 10
libr@@ 10
access@@ 10
sandstone 10
prosthetics 10
could. 10
undering 10
premier 10
oppressive 10
pharaoh 10
filing 10
arman@@ 10
carer 10
care@@ 10
questionnaire 10
willie 10
cad@@ 10
1939 10
ares 10
tones 10
elemental 10
yor 10
ors. 10
gayle 10
.0@@ 10
drawers 10
incisions 10
viability 10
nationally 10
shit@@ 10
13,000 10
speculative 10
immerse 10
laun@@ 10
patro@@ 10
bots 10
tracing 10
kru@@ 10
sect@@ 10
inspection 10
cartel 10
tiz@@ 10
99.9 10
veget@@ 10
medals 10
prickly 10
maneuverable 10
ota 10
americ@@ 10
discouraged 10
logged 10
heav@@ 10
cavalry 10
misconceptions 10
ecstatic 10
lazarus 10
rim 10
compounded 10
16. 10
originate 10
hydration 10
jeweled 10
babysit@@ 10
pious 10
fearing 10
biopsies 10
craz@@ 10
licensing 10
sharper 10
quickly. 10
deformed 10
cise 10
fanciful 10
tyr@@ 10
argues 10
jon@@ 10
conjunction 10
pebble 10
sameness 10
whispered 10
pronoun@@ 10
underworld 10
measles 10
improv 10
mortgages 10
mon 10
maver@@ 10
yman 10
hysterical 10
abe 10
skeptic 10
toxicity 10
ducible 10
hours. 10
flowed 10
sizable 10
fueling 10
reverber@@ 10
upgraded 10
briquettes 10
bie 10
smugglers 10
delusional 10
hammer@@ 10
quarterly 10
sine 10
phan@@ 10
gel@@ 10
wei@@ 10
taboos 10
repeats 10
radiant 10
identifies 10
administrator 10
minimally 10
business. 10
mically 10
stive 10
substrate 10
upbeat 10
cardio@@ 10
grameen 10
punchline 10
morpho@@ 10
lynn 10
tabletop 10
philips 10
ageism 10
minto 10
fortress 10
magni@@ 10
nominate 10
reconstructing 10
grasp@@ 10
steri@@ 10
boggling 10
working. 10
ü@@ 10
torah 10
prematurely 10
telecoms 10
ovaries 10
acqua@@ 10
1946 10
not@@ 10
supplying 10
dismay 10
tribunal 10
peña 10
rethinking 10
persian 10
hysteria 10
extrapolate 10
freudian 10
cluded 10
bison 10
telephony 10
desolate 10
inception 10
hind 10
severed 10
abduc@@ 10
municipalities 10
son. 10
ured 10
master@@ 10
wield 10
milestone 10
dane 10
imports 10
bogot@@ 10
sandra 10
hyena 10
arrowheads 10
acoustici@@ 10
instinctive 10
freshmen 10
rists 10
where. 10
ria 10
derartu 10
comb@@ 10
starved 10
inference 10
selfishness 10
absur@@ 10
embar@@ 10
ies. 10
metro 10
well@@ 10
1.1 10
biofuel 10
vanilla 10
nonverbals 10
disturbance 10
photocop@@ 10
rem@@ 10
gaz@@ 10
topography 9
stern 9
toa@@ 9
disconnection 9
critter 9
microflui@@ 9
magnific@@ 9
ahmed 9
resonates 9
long. 9
seriously. 9
accessed 9
effortlessly 9
indicative 9
cogs 9
plucked 9
monogamy 9
grasping 9
dues 9
osa 9
downloading 9
rationality 9
celebrates 9
[...]
